[PAD]
[UNK]
[CLS]
[SEP]
[MASK]
`
``
^
~
×
<
</
≤
=
≥
>
|
°
_
-
--
,
;
:
!
?
/
.
..
...
·
'
''
(
)
[
]
{
}
©
®
@
$
*
&
#
##`
##̆
##^
##̊
##̋
##~
##̇
##÷
##×
##≠
##<
##≤
##=
##≥
##>
##¬
##|
##¦
##°
##┬
##┤
##┴
##│
##─
##_
##̲
##-
##,
##;
##:
##://
##!
##¡
##?
##¿
##/
##//
##̸
##.
##.-
##·
##'
##"
##(
##)
##[
##]
##{
##}
##§
##¶
##©
##®
##@
##¢
##$
##£
##¥
##*
##\
##&
###
##%
##+
##±
##←
##→
##↑
##↓
##♪
##٭
##ֹ
##־
##׀
##́
##∼
%
+
±
→
∼
′′
0
-0.
:0
.0
##0
##-0
##,0
##:0
##.0
##0/
##0.
+0.
0.
00
.00
##00
##:00
##.00
##0.0
0.0
000
,000
##000
##,000
0.00
##0000
0.000
0.0001
.0001
0.001
0.002
0.003
0.004
0.005
0.006
0.007
0.008
0.009
001
.001
##001
0.01
0.011
0.012
0.013
0.014
0.015
0.016
0.017
0.018
0.019
0.02
0.023
0.024
0.025
0.026
0.03
0.04
0.05
0.06
0.07
0.08
0.09
01
.01
##01
##-01
##:01
##.01
0.1
0.10
0.11
0.12
0.13
0.14
0.15
0.16
0.17
0.18
0.19
.02
##02
0.2
0.20
0.21
0.22
0.23
0.24
0.25
0.26
0.27
0.28
0.29
.03
##03
0.3
0.30
0.31
0.32
0.33
0.34
0.35
0.36
0.37
0.38
0.39
.04
##04
0.4
0.40
0.41
0.42
0.43
0.44
0.45
0.46
0.47
0.48
0.49
05
.05
##05
0.5
0.50
0.51
0.52
0.53
0.54
0.55
0.56
0.57
0.58
0.59
##06
0.6
0.60
0.61
0.62
0.63
0.64
0.65
0.66
0.67
0.68
0.69
##07
0.7
0.70
0.71
0.72
0.73
0.74
0.75
0.76
0.77
0.78
0.79
##08
0.8
0.80
0.81
0.82
0.83
0.84
0.85
0.86
0.87
0.88
0.89
##09
0.9
0.90
0.91
0.92
0.93
0.94
0.95
0.96
0.97
0.98
0.99
1
-1
:1
.1
##1
##-1
##-1-
##:1
##/1
##.1
##‐1
##1-
##1,
##1/
+1
−1
1-
1,
1:
1/
1.
10
-10
,10
##10
##-10
##-10-
##,10
##/10
##.10
##1-0
##10-
1,0
1.0
10-
10/
10.
100
##100
##-100
##/100
1.00
10.0
100-
1000
##-1000
1,000
10,000
100,000
101
##101
##-101
1.01
10-15
102
##102
1.02
10.2
10-20
103
##103
1.03
10.3
104
##104
1.04
10.4
105
##105
1.05
10.5
106
##106
1.06
10.6
107
##107
1.07
10.7
108
##108
1.08
10.8
109
##109
1.09
11
-11
##11
##-11
##1-1
##11-
1,1-
1:1
1.1
11-
110
##110
1-10
1.10
11.0
111
1.11
11.1
112
1.12
11.2
113
1.13
11.3
114
1.14
11.4
115
1.15
11.5
116
##116
1.16
11.6
117
##117
1.17
11.7
118
1.18
11.8
119
##119
1.19
11.9
12
-12
##12
##-12
##1-2
##1/2
##12-
1-2
1,2
1,2-
1,2,
1:2
1/2
1.2
12-
120
##120
##-120
12.0
1200
121
##121
12.1
122
##122
##-122
12.2
123
##123
1.23
12.3
124
##-124
12.4
125
##125
##-125
1,25
1.25
12.5
126
##126
##-126
12.6
127
##127
12.7
128
##128
12.8
129
12.9
13
-13
##13
##-13
##1-3
1-3
1,3
1,3-
1,3,
1.3
13-
130
##130
131
##131
132
##132
13.2
133
##133
13.3
134
13.4
135
13.5
136
13.6
137
##137
138
##138
13.8
139
14
-14
##14
##-14
##1-4
1-4
1,4
1,4-
1.4
14-
140
##140
141
142
143
14.3
14-3-3
144
145
##145
##-145
14.5
146
##146
##-146
147
##147
148
149
15
-15
##15
##-15
##.15
##1-5
##15-
1-5
1,5-
1.5
1.5-
15-
150
##150
##-150
1500
151
152
153
##153
154
155
##155
##-155
15.5
156
15.6
157
##157
158
16
##16
##-16
##16-
1-6
1.6
16-
160
##160
162
##163
164
165
16.5
166
167
16.7
168
17
-17
##17
##-17
##17-
1-7
1.7
17-
170
##170
172
175
17.5
176
177
18
##18
##-18
1.8
18-
180
##180
185
18.5
188
19
##19
##-19
1.9
19-
190
192
195
1950
1960
1970
198
1980
1985
1986
1987
1988
1989
199
##-199
1990
1991
1992
1993
1994
1995
1996
1997
1998
1999
2
-2
,2
,2,
.2
##2
##-2
##-2-
##,2
##:2
##/2
##.2
##2-
##2,
##2/
+2
2-
2,
2/
20
-20
##20
##-20
##2-0
##20-
2.0
20-
20.
200
##200
##-200
##/200
2000
2001
2002
2003
2004
2005
##-2005
2006
##-2006
2007
##-2007
2008
##-2008
2009
##-2009
201
##201
##-201
2010
##-2010
2011
##-2011
2012
##-2012
2013
##-2013
2014
##-2014
2015
##-2015
2016
2017
20-30
##206
21
##21
##-21
##2-1
2:1
2.1
21-
210
22
##22
##-22
2,2
2.2
22-
220
222
225
226
23
,2,3
##23
##-23
##2/3
2-3
2,3
2,3-
2/3
2.3
23-
230
##-231
238
24
##24
##-24
2-4
2,4-
2,4,
2.4
24-
240
2,4,6-
25
##25
##-25
##.25
2-5
2,5-
2.5
25-
250
##251
256
26
##26
##-26
2,6-
2.6
260
264
##264
264.7
27
##27
##-27
2.7
27-
270
28
##28
##-28
2.8
28-
280
29
##29
##-29
2.9
293
##293
##294002
298
3
-3
,3
.3
##3
##-3
##-3-
##,3
##:3
##/3
##.3
##3-
##3/
+3
3-
3,
3/
30
-30
##30
##-30
##3-0
3.0
30-
30.
300
##300
##-300
3000
31
-31
##31
##-31
3.1
32
##32
##-32
3.2
32-
320
33
##33
##-33
##-3-3
##.33
3,3
3.3
33.3
34
##34
##-34
3-4
3,4
3,4-
3.4
##344
35
##35
##-35
3-5
3,5-
3.5
35-
350
36
##36
##-36
3-6
3.6
36-
360
37
##37
##-37
3.7
37.5
38
##38
##-38
3.8
39
##39
##-39
3.9
4
-4
,4
.4
##4
##-4
##-4-
##,4
##.4
##4-
##4,
##4/
4-
4,
4/
40
##40
##-40
##4-0
4.0
40-
40.
400
##400
##-400
4000
##4002
41
##41
##-41
4.1
42
##42
##-42
4.2
43
##43
##-43
4.3
44
##44
##-44
4,4
4.4
45
##45
##-45
4-5
4,5
4,5-
4.5
45-
450
##450
454
46
##46
4-6
4.6
47
##47
##-47
4.7
48
##48
##-48
4.8
48-
49
##49
##-49
4.9
5
-5
,5
.5
##5
##-5
##-5-
##,5
##.5
##5-
##5/
5-
5,
5/
50
##50
##-50
##5-0
5.0
50-
50.
500
##500
##-500
5000
##506
51
##51
5.1
5-10
52
##52
5.2
53
##53
##53-
5.3
54
##54
5.4
##549
55
##55
##-55
5.5
550
56
##56
5.6
##562
57
##57
5.7
58
##58
5.8
59
##59
5.9
6
-6
,6
.6
##6
##-6
##-6-
##,6
##/6
##.6
##6-
##6/
6-
6/
60
##60
##-60
##6-0
6.0
60-
60.
600
##600
61
##61
6.1
##617
62
##62
6.2
63
##63
6.3
64
##64
##-64
6.4
64-
65
##65
##-65
6.5
66
##66
6.6
67
##67
##-67
##.67
6.7
##677
68
##68
6-8
6.8
69
##69
6.9
7
-7
,7
.7
##7
##-7
##-7-
##,7
##.7
##7-
##7/
7-
7/
70
##70
##-70
7.0
70-
70.
700
71
##71
7.1
72
##72
7.2
72-
73
.73
##73
7.3
74
##74
7.4
75
##75
##-75
##.75
7.5
750
76
##76
7.6
77
##77
7.7
78
##78
7.8
79
##79
##-79
7.9
8
-8
,8
.8
##8
##-8
##-8-
##,8
##,8-
##.8
##8-
##8/
8-
8/
80
##80
##-80
8.0
80.
800
81
##81
8.1
82
##82
8.2
83
##83
8.3
84
##84
8.4
85
##85
8.5
86
##86
8.6
87
##87
8.7
88
##88
8.8
89
##89
8.9
9
-9
.9
##9
##-9
##-9-
##,9
##.9
##9-
9-
90
##90
##-90
9.0
90-
90.
900
91
##91
9.1
92
##92
##-92
9.2
93
##93
9.3
##937
94
##94
9.4
95
##95
##-95
9.5
96
##96
9.6
96-
97
##97
9.7
98
##98
9.8
99
.99
##99
##-99
9.9
a
##a
A
##A
##á
##Á
##à
##À
##ă
##ắ
##Ă
##â
##Â
##ǎ
##å
Å
##Å
##Ǻ
##ä
##Ä
##ã
##Ã
##ȧ
##Ȧ
##ą
##ā
##Ā
##ȁ
##ȃ
aa
AA
##AA
AAA
AAP
AAS
AAT
AAV
##AAV
ab
##ab
Ab
##Ab
AB
##AB
##aba
ABA
##abalin
##aban
aband
abandoned
##abatic
ABC
##ABC
ABCA
ABCB
ABCC
ABCG
abdom
abdomen
abdominal
##abdominal
Abdominal
abduction
aber
Aber
aberrant
Aberrant
aberrantly
aberration
aberrations
Abeta
ABI
##abil
##abilistic
abilities
##abilities
ability
##ability
##abilization
##abin
##abine
##abinoid
##abinoids
abiotic
##abis
abl
##abl
##ABL
ablation
##ablation
Ablation
ablative
##ablative
able
##able
##abled
##ables
##abling
##ably
abn
abnorm
abnormal
Abnormal
abnormalities
abnormality
abnormally
ABO
abol
##abol
##abolic
abolished
##abolism
##abor
Abor
##aboration
##aboratory
Aboriginal
abortion
about
About
above
ABP
abras
##abric
##abricated
##abrication
abrog
abrogated
abrup
abrupt
abs
##abs
Abs
absc
abscess
abscesses
abscisic
absence
Absence
absent
absolute
absor
absorb
##absorb
absorbance
absorbed
absorber
absorbing
absorp
absorptiometry
absorption
##absorption
Absorption
abstin
abstinence
abstr
Abstr
abstract
Abstract
abstraction
abstracts
ABT
##abular
abund
abundance
abundances
abundant
abundantly
abuse
abut
ac
##ac
##aC
Ac
##Ac
AC
##AC
##aca
ACA
acad
Acad
academic
Academic
Academy
Acanth
acc
##acc
Acc
ACC
accel
Accel
acceler
accelerate
accelerated
accelerates
accelerating
acceleration
accelerometer
accent
accept
##accept
Accept
acceptability
acceptable
acceptance
accepted
acceptor
##acceptor
acceptors
acces
##acces
access
Access
accessed
accessibility
##accessibility
accessible
##accessible
accessing
accession
accessions
accessory
##acch
##accha
##acchar
##accharide
##accharomyces
accident
accidental
accidents
acclim
acclimation
##acco
accom
accommod
accommodate
accommodation
accompan
accompanied
accompany
accompanying
accompl
accomplish
accomplished
accordance
according
According
accordingly
Accordingly
accoun
account
accounted
accounting
accounts
accreditation
acculturation
accum
##accum
Accum
accumbens
accumulate
accumulated
accumulates
accumulating
Accumulating
accumulation
##accumulation
Accumulation
accur
accuracies
accuracy
Accuracy
accurate
Accurate
accurately
ACD
ace
##ace
ACE
##ACE
##acea
##aceae
##aced
acellular
##acement
##acements
##acent
##acental
##aceous
##acer
##acerb
##acers
##aces
acet
##acet
Acet
acetabular
acetaldehyde
##acetam
##acetamide
acetaminophen
##acetamol
acetate
##acetate
##aceted
acetic
##acetic
acetone
acetonitrile
acetyl
##acetyl
acetylated
acetylation
##acetylation
acetylcholine
##acetylcysteine
##aceu
##aceus
##aceutical
ach
##ach
Ach
ACh
##ache
AChE
##ached
##aches
##achi
##achid
achie
Achie
achievable
achieve
achieved
achievement
achievements
achieves
achieving
Achilles
##aching
##achlor
##achment
##achn
##achnoid
##achus
##achy
##aci
##acia
##acial
##acic
acid
##acid
Acid
acidic
acidification
acidity
acidosis
acids
##aciens
##acies
##acil
##acillin
##acillus
##acin
Acin
acinar
Acinetobacter
##acing
##acity
##ack
##acking
ackn
acknowled
acknowledged
##acks
##acl
ACL
##acle
##acloprid
acne
##aco
acous
acoustic
##acoustic
ACP
acqu
acquire
acquired
##acquired
Acquired
acquiring
acquisition
ACR
##acral
##acrine
acromegal
acros
across
Across
acryl
##acryl
acrylamide
##acrylamide
##acrylate
acrylic
##ACs
ACS
##ACS
act
##act
Act
ACT
##ACT
##actam
acted
##acted
##acter
##acterial
##acterium
ACTH
##acti
##actic
actin
##actin
Actin
acting
##acting
action
##action
Action
actions
##actions
activ
##activ
Activ
activate
##activate
activated
##activated
Activated
activates
activating
##activating
activation
##activation
Activation
activations
activator
##activator
activators
active
##active
Active
actively
activin
activities
##activities
Activities
activity
##activity
Activity
##actone
##actor
actors
##actors
acts
##acts
actu
actual
actually
##actyl
##actyly
acuity
##acular
##aculture
##acum
acup
acupuncture
##acupuncture
##acus
acute
##acute
Acute
acutely
##acy
##acycl
acyl
##acyl
##acylglycer
##acylglycerol
ad
##ad
Ad
##Ad
AD
##AD
##ada
ADA
adalimumab
ADAM
ADAMTS
adap
##adap
Adap
adapt
adaptability
adaptation
Adaptation
adaptations
adapted
##adapted
adapting
adaptive
##adaptive
Adaptive
adaptor
##adays
ADC
add
Add
added
##adder
addi
addic
addiction
addictive
adding
Adding
addition
Addition
additional
Additional
additionally
Additionally
additions
additive
additives
address
addressed
addresses
addressing
adds
adduct
adducts
##ade
Ade
##adec
##adecyl
##aded
##ademic
aden
##aden
Aden
adenine
adeno
adenocarcinoma
adenocarcinomas
adenoid
adenoma
adenomas
adenomatous
adenosine
##adenosine
Adenosine
##adenosyl
adenoviral
adenovirus
adenylate
adequ
##adequ
Adequ
adequacy
adequate
adequately
##ades
ADH
ADHD
adhe
adhere
adhered
adherence
##adherence
Adherence
adherent
adhesi
adhesion
adhesions
adhesive
##adhesive
adhesives
adi
##adi
Adi
adiabatic
##adian
##adic
##adication
##adiene
##adily
##adin
##adine
##ading
adip
##adip
adipocyte
adipocytes
adipogenesis
adipogenic
adipokines
adiponectin
adipose
Adipose
adiposity
##adium
adj
Adj
adjacent
adjunc
adjunct
adjunctive
adjus
adjust
adjustable
adjusted
##adjusted
adjusting
adjustment
adjustments
adjuv
adjuvant
Adjuvant
adjuvants
ADL
ADM
ADMA
admin
##admin
administered
##administered
administering
administr
administrated
administration
##administration
Administration
administrative
admission
admissions
admitted
admixture
adnex
##ado
##adol
adoles
##adoles
Adoles
adolescence
adolescent
Adolescent
adolescents
Adolescents
##adone
adop
Adop
adopt
adopted
adopting
adoption
adoptive
adopts
##ador
##adow
ADP
##ADP
ADR
adren
##adren
adrenal
##adrenal
##adrenaline
adrenergic
##adrenergic
##adrenoceptor
adrenocortical
##ads
##ADS
adsorb
adsorbed
adsorbent
adsorbents
adsorption
Adsorption
ADT
adul
adult
Adult
adulter
adulthood
adults
Adults
adv
Adv
advance
Advance
advanced
Advanced
advancement
advancements
advances
Advances
advancing
advant
##advant
Advant
advantage
advantageous
advantages
advent
adventi
adver
##adver
adverse
Adverse
adversely
adversity
advertis
advice
advis
advised
advoc
advocacy
advocate
advocated
##ady
##ae
Ae
AE
##AE
##æ
##ǽ
##Æ
##aea
##aec
Aedes
AEDs
aeg
aegypti
##ael
##aemia
##aemic
aer
##aer
Aer
aeration
aerial
aerobic
Aeromonas
aerosol
aerosols
aeruginosa
aes
AEs
aesthetic
aestiv
aestivum
aeti
aetiology
##aeus
af
##af
Af
AF
##AF
AFB
##afe
##afenib
aff
##aff
Aff
##affe
affect
affected
##affected
affecting
affective
affects
afferent
afferents
affili
affiliation
##affin
affinities
affinity
##affinity
afford
affordable
Affordable
afforded
affords
Afghan
##afil
afl
aflat
aflatoxin
##afluor
AFM
afore
aforementioned
AFP
Afric
Africa
African
##aft
after
##after
After
ag
##ag
Ag
##Ag
AG
##AG
##agA
again
Again
against
Against
agar
agarose
##agas
age
##age
Age
AGE
aged
##aged
ageing
##agement
agen
##agen
agencies
agency
Agency
agenda
agenesis
##agenesis
##agens
agent
##agent
agents
Agents
##ager
##agers
ages
##ages
AGEs
agg
##agg
Agg
aggl
agglut
##agglut
agglutination
aggra
aggravated
aggreg
##aggreg
Aggreg
aggregate
aggregated
aggregates
aggregation
##aggregation
aggres
aggression
aggressive
aggressiveness
##agic
##agin
##aginal
aging
##aging
Aging
##aginous
##agit
agitation
##agittal
##agl
##agland
##agle
##agliptin
##agn
##agnetic
AgNPs
ago
##ago
agon
##agon
##agonal
agonist
##agonist
agonistic
agonists
##agonists
##agrass
agre
agree
agreed
agreement
agrees
agric
Agric
agricultural
agriculture
agro
Agrobacterium
agron
AGS
##ague
##agul
##agulation
##agus
##ah
AH
##AH
##aharan
ahead
##ahertz
AhR
AHR
##ai
AI
##AI
AIC
##aicin
aid
##aid
AID
aided
##aided
aids
AIDS
##AIDS
AIF
##aign
##ail
##ailand
##ailed
##ailing
##ails
aim
Aim
AIM
aimed
aiming
aims
##ain
##aine
##ained
##aining
##ains
##aint
AIP
air
##air
Air
airborne
##aired
airflow
##airs
airway
Airway
airways
##airy
AIS
##ait
AJ
##ak
Ak
AK
##AK
##aka
##akary
##ake
##aked
##aken
##aker
##akers
##akes
##aki
AKI
##akia
##aking
AKR
##aks
Akt
##Akt
AKT
##AKT
al
##al
Al
##Al
AL
##AL
##ala
Ala
##Ala
ALA
##alact
alanine
##alanine
alarm
Alaska
alb
albeit
albicans
albino
albopic
albopictus
albumin
##albumin
albuminuria
##albuminuria
##alc
alcoh
alcohol
Alcohol
alcoholic
##alcoholic
alcoholism
alcohols
ald
##ald
ALD
aldehyde
##aldehyde
aldehydes
##Alder
ALDH
aldosterone
##ale
##aled
##alene
##alent
alert
##ales
##alesional
alex
Alex
alf
alfa
##alfa
alfalfa
alg
##alg
Alg
alga
algae
##algae
algal
##algia
alginate
algorith
Algorith
algorithm
algorithms
##ali
ALI
##alian
##aliana
align
aligned
alignment
##alignment
alignments
alike
##alimumab
##alin
##aline
##aling
aliphatic
##alis
##alities
##ality
alive
alk
##alk
Alk
ALK
alkal
Alkal
alkali
alkaline
alkaloid
alkaloids
alkenes
alkyl
##alkyl
alkylation
alkyne
alkynes
all
##all
All
ALL
##ALL
alle
##alle
Alle
##alled
##allel
allele
##alleled
alleles
allelic
##alleng
##allenge
aller
allergen
allergens
allergic
##allergic
Allergic
allergies
allergy
allevi
alleviate
alleviated
alleviates
alleviating
alliance
##allic
##alling
allo
##alloc
##allocatechin
allocated
allocation
allodynia
allogeneic
allograft
allografts
allop
allosteric
allow
##allow
allowed
allowing
allows
alloy
alloys
ally
##ally
allyl
##allyl
allylic
almost
Almost
##alo
alone
##alone
along
Along
alongside
alopecia
ALP
alph
alpha
##alpha
Alpha
alpine
already
##als
ALS
##ALS
##alse
also
Also
##alsy
##alt
ALT
alter
Alter
alteration
alterations
Alterations
altered
##altered
Altered
altering
altern
Altern
alternate
alternating
alternative
Alternative
alternatively
Alternatively
alternatives
alters
##alth
although
Although
altitude
Altogether
##alu
##aluable
##alues
alumin
alumina
aluminium
aluminum
##alus
alve
alveolar
always
##ALY
##alysis
Alzheimer
am
##am
Am
##Am
AM
##AM
##ama
##amagnetic
##aman
##amant
##amate
Amazon
amb
##amb
Amb
##amber
ambi
##ambi
ambient
ambigu
ambiguity
ambiguous
##ambiguous
ambly
ambulatory
AMD
##ame
amel
##amel
Amel
amelior
ameliorate
ameliorated
ameliorates
ameliorating
amelioration
##amellar
amen
##amen
amenable
amend
amended
amendment
##ament
##amental
##aments
##amer
americ
##americ
Americ
##Americ
America
American
##American
Americans
##amers
##ames
##amet
##ameter
##ameth
##amethasone
##amethoxazole
AMF
AMH
##ami
AMI
##amic
##amicin
##amid
amide
##amide
amides
##amides
##amido
##amil
##amiliar
##amilies
##amilton
##amily
amin
##amin
Amin
##Amin
##aminal
##aminase
##aminated
##amination
amine
##amine
##aminergic
amines
##amines
##aming
##aminidase
amino
##amino
Amino
##aminobutyric
aminoglyc
##aminophen
##amins
##amivir
AML
##amm
##amma
ammon
##ammon
ammonia
ammonium
##ammonium
##ammox
amn
##amn
amnes
amniotic
amoeb
##amoeba
##amond
among
Among
amongst
amorphous
amount
amounts
##amous
amoxicillin
amp
##amp
Amp
AMP
##AMP
AMPA
amperometric
amph
Amph
##amphen
##amphenicol
amphetamine
##amphetamine
amphib
amphibian
amphibians
amphip
amphiph
amphiphilic
amphotericin
ampicillin
AMPK
ampl
##ampl
Ampl
##ample
##amples
amplic
amplicon
amplicons
amplification
amplified
amplifier
amplify
##ampling
amplitude
amplitudes
AMPs
amput
amputation
AMR
##ams
AMS
##amus
##amycin
amygd
amygdala
amyl
##amyl
amylase
##amylase
amyloid
##amyloid
Amyloid
amyloidosis
amyotrophic
an
##an
An
##An
AN
##AN
ana
##ana
Ana
ANA
anabolic
anaemia
anaer
anaerobic
anaest
anaesthesia
anaesthetic
anal
##anal
Anal
##Anal
analges
analgesia
analgesic
analgesics
analog
analogous
analogs
analogue
analogues
analogy
analy
Analy
analys
analyse
analysed
analyses
##analyses
Analyses
analysing
analysis
##analysis
Analysis
##Analysis
analyte
analytes
analytic
##analytic
analytical
##analytical
Analytical
analytically
analyze
analyzed
analyzer
analyzes
analyzing
##anamycin
anaphyl
anaphylaxis
anaplastic
##anar
##anase
anastom
anastomosis
anastomotic
anat
##anat
Anat
anatase
##anate
anatomic
anatomical
##anatomical
Anatomical
anatomically
anatomy
anc
##anc
ANCA
##ance
##anced
##ancement
##ancer
##ancers
ances
##ances
ancest
ancestor
ancestral
ancestry
anch
##anch
anchor
anchorage
anchored
##anchored
anchoring
##ancial
ancient
##ancies
ancillary
##ancing
##ancomycin
##ancre
##ancreas
##ancreat
##ancreatic
##ancy
and
##and
And
AND
##anda
##anded
##andem
##ander
Anders
##anding
Andro
androgen
androgens
##ands
ane
##ane
Ane
##aned
##anedi
##anediol
anemia
Anemia
##aneoplastic
##aneous
##aner
##anercept
##anes
##ANES
##anese
anest
anesthe
anesthesi
anesthesia
anesthetic
anesthetics
anesthetized
##anesulf
aneu
aneuploidy
aneurys
##aneurys
Aneurys
aneurysm
aneurysmal
aneurysms
ang
##ang
Ang
ANG
##ange
##angeal
Angel
anger
##anger
##angered
##anges
angi
##angi
Angi
##angial
##angiect
##angiectasia
angina
##anging
angio
angiogenesis
##angiogenesis
Angiogenesis
angiogenic
##angiogenic
angiographic
angiography
angioplasty
angiotensin
##angiotensin
Angiotensin
##angitis
##angl
##anglades
angle
##angle
angles
##angli
##angu
##anguage
##anguages
##anguine
angular
##angular
anhyd
anhydrase
##ani
##ania
##anib
##anic
##anical
##anics
##anide
##anil
aniline
##aniline
anim
animal
##animal
Animal
animals
Animals
##anin
##anine
##aning
anion
##anion
anionic
anions
anis
Anis
##anish
anisotropic
anisotropy
##anium
ank
##ank
ankle
##anks
##ankton
ankyl
ankylosing
ann
##ann
Ann
ANN
annealing
##anned
##annel
##annels
annexin
Annexin
anni
##anning
annot
annotated
annotation
annotations
annual
##annual
Annual
annually
annular
annulus
##ano
##anoate
anode
anodic
##anoic
##anoid
##anol
##anolic
anomal
Anomal
anomalies
anomalous
anomaly
##anone
anonymous
Anopheles
anore
anorexia
another
Another
ANOVA
anoxic
ANP
##ans
ANS
##ansh
##ansion
answ
##answ
answer
answered
##answered
answers
ant
##ant
Ant
ANT
##anta
antagon
antagonism
antagonist
antagonistic
antagonists
##antal
Antarctic
ante
antec
anteced
##anted
##antel
anten
antenatal
antenn
antenna
anter
##anter
anterior
Anterior
anth
##anth
Anth
anthelmin
anther
##anthin
##anthine
anthocyan
##anthocyan
anthocyanin
anthocyanins
anthrac
anthracene
anthracis
anthracycline
anthrax
anthrop
Anthrop
anthropogenic
anthropometric
##anthus
anti
##anti
Anti
##antial
antiangiogenic
antiapoptotic
antib
antibacterial
Antibacterial
antibiotic
Antibiotic
antibiotics
antibodies
##antibodies
Antibodies
antibody
##antibody
Antibody
antic
##antic
Antic
anticancer
antich
anticip
anticipate
anticipated
anticipation
anticipatory
antico
anticoagul
anticoagulant
anticoagulants
anticoagulation
anticonvuls
anticonvulsant
antidepress
antidepressant
antidepressants
antidiabetic
antiepileptic
antif
antifer
antifungal
antigen
##antigen
Antigen
antigenic
antigens
##antigens
antihyper
##antile
antim
Antim
antimal
antimalarial
antimicrobial
Antimicrobial
antimicrobials
antin
antine
##antine
antineoplastic
antinociceptive
antioxid
antioxidant
Antioxidant
antioxidants
antioxidative
antip
antiplatelet
antipsych
antipsychotic
antipsychotics
antiretroviral
antis
antisense
antiser
antisocial
antithrombotic
antitub
antitumor
antiv
antiviral
##antle
##antly
##anto
ants
##ants
##antum
##anum
##anus
anx
##anx
Anx
anxi
anxiety
Anxiety
anxiolytic
anxious
any
##any
Any
##anyl
##anz
##anzapine
AO
##ão
AOR
aort
aorta
aortic
##aortic
Aortic
ap
##ap
##aP
Ap
AP
##AP
##apa
APA
##apamil
##apan
APAP
##aparin
apart
Apart
apatite
##apatite
APC
APCs
APD
##ape
##aped
##apenem
##apentin
##apeptide
aper
##aper
aperture
##apes
apex
aph
##aph
Aph
##aphase
aphasia
##apheresis
aphid
aphids
##aphnia
##aphyl
API
##apia
apic
apical
##apillary
##apine
##aping
##apit
##apl
APL
##aplan
##aplasma
##aple
apnea
apnoea
apo
Apo
apoA
APOB
APOBEC
apoE
ApoE
APOE
apolipoprotein
##aponic
apopt
##apopt
Apopt
apoptosis
Apoptosis
apoptotic
##apoptotic
##apor
##aporation
##apore
##aporin
app
##app
App
APP
##appa
apparatus
apparent
Apparent
apparently
appe
appealing
appear
appearance
appeared
appearing
appears
##apped
append
appendage
appendic
appendicitis
appendix
appetite
##apping
appl
apple
applic
applicability
applicable
application
Application
applications
Applications
applied
applies
apply
applying
Applying
appoint
appra
appraisal
apprec
appreciable
appreciated
appreciation
appro
##appro
Appro
approach
Approach
approached
approaches
Approaches
approaching
appropri
appropriate
##appropriate
Appropriate
appropriately
appropriateness
approval
approved
##approved
approxim
Approxim
approximate
approximately
Approximately
approximation
approximations
April
##aprote
##aproteobacteria
##aps
APS
##apse
##apsed
##apsular
##apsules
apt
##apt
aptamer
aptamers
##apter
##aptic
##apto
##aptomycin
##apular
AQ
AQP
aqu
##aqu
Aqu
aquaculture
aquaporin
aquatic
##aque
aqueous
##aqueous
Aqueous
aquifer
ar
##ar
##aR
Ar
##Ar
AR
##AR
##ara
Ara
arab
Arab
Arabia
Arabidopsis
arabin
##arabin
##arabine
arachid
arachidonic
##arachnoid
##aracter
##araldehyde
##aran
##arant
##arate
##aration
##arative
##aratus
arb
##arb
arbit
arbitr
arbitrary
##arbonate
##arbonyl
##arbox
##arboxyl
##arboxylate
##arboxylic
##arburg
##arby
arc
##arc
Arc
ARC
##ARC
##arcane
##arcer
arch
##arch
Arch
archae
##archae
archaea
archaeal
##arche
archi
architect
##architect
architectural
architecture
##architecture
architectures
##arcin
##arcoma
##arcomas
##arcot
##arct
##arctic
Arctic
##arction
arcuate
##ard
##ARD
##arded
##ardi
##ardia
##ardiac
##ardial
##arding
##ardized
##ardless
##ards
ARDS
are
##are
Are
##ARE
area
##area
Area
##arean
areas
Areas
##ared
##aren
arena
##arency
arene
##arensis
##arent
##arer
##ares
##aresis
##arest
ARF
arg
##arg
Arg
##Arg
##arge
##arged
Argent
Argentina
##arges
##arget
argin
##argin
arginase
##arging
arginine
##arginine
argon
argu
argue
argued
argues
argument
arguments
##ari
ARI
##aria
##ariable
##ariae
##arial
##arian
##arians
##ariasis
##ariate
##ariatric
##arib
##aribbean
##aric
arid
##arid
##aries
##arietal
##arily
##arin
##arine
##aring
##arinic
##arins
##ario
##arious
##aris
arise
arises
arising
arithmetic
##arities
##arity
##arium
##arius
##ark
##arly
arm
##arm
Arm
##armac
##armaceutical
##armacy
##arming
arms
##aro
arom
aroma
aromatase
aromatic
##aromatic
##arone
arose
##arose
##arotene
around
arous
##arous
arousal
##arox
##aroxaban
##aroyl
##arp
##ARP
##arpal
arr
##arr
Arr
arranged
arrangement
arrangements
array
##array
Array
arrays
arres
##arres
arrest
arrested
##arrestin
##arrh
arrhythm
arrhythmia
arrhythmias
##arrhythmic
arri
##arri
##arriage
##arrier
##arriers
arrival
ars
##ars
Ars
##ARs
##ARS
##arsal
##arse
arsen
arsenate
arsenic
Arsenic
arsenite
##arsh
art
##art
Art
ART
##ART
##artan
arte
artemis
Artemis
artemisinin
arter
##arter
Arter
##arterectomy
arteri
arterial
##arterial
Arterial
arteries
arterioles
arteriovenous
arteritis
artery
Artery
arth
##arth
Arth
arthritis
Arthritis
arthrodesis
arthrop
arthroplasty
arthropod
arthropods
arthroscopic
arthroscopy
artic
##artic
Artic
article
##article
articles
##articles
articular
##articular
artif
artifact
artifacts
artificial
Artificial
artificially
##arts
##artum
##artz
##arum
##arus
##arv
##arvation
##ary
##arying
aryl
##aryl
##aryn
##aryng
##aryngeal
##arynx
as
##as
As
##As
AS
##AS
ASA
##asaki
##asal
##asant
asbestos
asc
##asc
Asc
ASC
ascending
ascer
ascertain
ascertained
##asci
##ascial
ascites
ascorb
ascorbate
ascorbic
ascribed
ASCs
##ascul
##ascular
##asculature
##asculin
ASD
##ase
##ASE
##ased
##aseous
aseptic
##aser
##asers
##ases
asex
asexual
ash
##ash
##ASH
##ashes
##ashing
##asi
Asi
##asia
Asia
##asian
Asian
##asians
Asians
##asias
##asic
##asin
##asing
##asion
##asis
ask
##ask
##aska
asked
##asm
ASM
##asma
##asmic
##asmon
##asmonic
Asn
##asome
##ason
##asonal
##asone
##asons
asp
##asp
Asp
##Asp
ASP
##ASP
asparag
aspartate
##aspartate
aspartic
##aspase
aspect
aspects
asperg
Asperg
aspergillosis
Aspergillus
##aspin
aspir
aspiration
aspirin
ass
##ass
Ass
##Ass
ASS
assault
assay
##assay
Assay
assayed
assays
##assays
assemb
##assemb
Assemb
assembl
assemblage
assemblages
assemble
##assemble
assembled
##assembled
assemblies
assembling
##assembling
assembly
##assembly
Assembly
##assemia
asser
assess
##assess
Assess
assessed
assesses
assessing
Assessing
assessment
##assessment
Assessment
assessments
##assi
assign
assigned
assignment
assignments
assimil
assimilation
##assion
assist
assistance
assisted
##assisted
assisting
##assium
##assive
associ
Associ
associate
associated
##associated
Associated
##Associated
associates
associating
association
##association
Association
associations
Associations
associative
assum
assume
assumed
assumes
assuming
assumption
assumptions
assurance
ast
##ast
Ast
AST
##AST
##astases
##astasis
##astatic
##astatin
##aste
##aster
##astern
##asters
asth
Asth
##asthen
##asthenia
asthma
Asthma
asthmatic
##astic
##astig
##astigotes
##asting
##astolic
##astom
##astric
astro
##astro
astroc
astrocyte
astrocytes
astrocytic
astrocytoma
##asts
##astuzumab
##asty
##asure
##asy
asym
Asym
asymmetric
Asymmetric
asymmetrical
asymmetries
asymmetry
asymptomatic
asymptotic
asynchron
asynchronous
at
##at
At
##At
AT
##AT
##ata
##ATA
##atable
##atal
##ataly
##atalysis
##atalyst
##atalysts
##atalytic
##atalyzed
##atase
##atases
##atation
atax
ataxia
ATCC
##atch
##atched
##atches
##atching
##ate
##ATE
##atech
##atechin
##atectomy
##ated
##ateg
##atell
##atellite
##atellites
##ately
##atement
##aten
##ateness
##ater
##ateral
##aterally
##atergic
##aterial
##aterials
##atern
##aternal
##aternary
##aters
##ates
ATF
Atg
ATG
ath
##ath
Ath
athe
##athe
Athe
##athecal
##ather
##athered
atherogenesis
atherogenic
atheroscler
Atheroscler
atherosclerosis
Atherosclerosis
atherosclerotic
##athi
##athic
##athin
##athion
##athione
##athiop
athle
athlete
athletes
athletic
##athoracic
##athy
##athyroid
##athyroidism
##ati
##atial
##atibility
##atible
##atic
##atics
##atid
##atide
##atidic
##atids
##atidyl
##atigue
##atil
##atile
##atiles
##atility
##atin
##atine
##ating
##atinib
##atins
##atinum
##atio
##ation
##ATION
##ational
##ationally
##ations
##ationship
##atis
##atisfaction
##atisfactory
##atism
##atite
##atitis
##ativ
##ative
##atively
##atives
##ativistic
##ativity
##atization
##atized
atl
Atl
ATL
Atlantic
atlas
Atlas
ATM
atmosp
atmosphere
atmospheric
##ato
##atohepatitis
##atoid
##atology
atom
##atom
##atoma
atomic
##atomic
Atomic
atomistic
atoms
##atoms
##atonin
atopic
##ator
##atorial
##atories
##ators
atorvastatin
##atory
##atosis
ATP
##ATP
ATPase
##ATPase
ATR
ATRA
##atran
atrazine
atresia
##atri
atrial
##atrial
Atrial
##atric
atrium
##atrogenic
atrop
atrophic
atrophy
##ats
##ATS
att
##att
Att
attach
attached
attachment
attack
attacks
attain
attained
attainment
attem
Attem
attempt
attempted
attempting
attempts
atten
##atten
Atten
attend
attendance
attended
attending
attention
Attention
attentional
attenu
attenuate
attenuated
attenuates
attenuating
attenuation
##atter
##attered
##attering
##attern
attit
attitude
attitudes
Attitudes
##atto
attrac
attract
##attract
attracted
attracting
attraction
attractive
attractiveness
attri
attrib
attributable
attribute
attributed
attributes
attrition
##atum
##atumoral
##atur
##aturated
##aturation
##ature
##atured
##atures
##aturing
##aturity
##atus
atyp
atypical
Atypical
au
##au
Au
##Au
AU
##auc
AUC
##aucoma
aud
##aud
Aud
audi
##audi
audio
audit
auditory
Auditory
##auer
aug
##aug
Aug
augment
augmentation
augmented
augments
August
##ault
AuNPs
aur
##aur
Aur
aure
aureus
Aurora
##aus
##ausal
##ause
##ausea
##ausing
##aussian
Aust
austr
Austr
Austral
Australia
Australian
Austria
aut
##aut
Aut
auth
Auth
authentic
author
authorities
authority
authors
autism
Autism
autistic
auto
Auto
autoanti
autoantibodies
autoantibody
autocor
autocorrelation
autocrine
autograft
autoimmune
Autoimmune
autoimmunity
autologous
Autologous
autom
automated
Automated
automatic
Automatic
automatically
automation
autonomic
autonomous
##autonomous
autonomy
autophag
autophagic
autophagosome
autophagy
Autophagy
autopsy
autore
autosomal
autumn
aux
auxiliary
auxin
av
##av
Av
AV
##ava
##avage
avail
##avail
Avail
availability
available
##available
Available
##ave
##aved
aven
##aven
avenue
avenues
aver
##aver
average
Average
averaged
averaging
aversion
aversive
##aves
avi
##avi
avian
##avian
##avicular
avid
##avidin
##avig
##aving
##avir
##avirin
##avity
avium
avoid
##avoid
avoidance
avoided
avoiding
avoids
##avor
##avorable
##avour
AVP
##avy
aw
##aw
AW
awa
##awa
awake
aware
##aware
Aware
awareness
Awareness
##awater
away
##awley
##awning
ax
##ax
Ax
##AX
##axanthin
##axation
##axel
axes
axial
##axial
axillary
##axin
axis
##axis
axon
axonal
##axone
axons
##axy
##ay
Ay
##aya
##ayed
##ayer
##ayered
##ayers
##aying
##ays
az
##az
Az
AZ
##aza
##azak
##aze
##azep
##azepam
##azepine
##azid
azide
##azide
##azin
##azine
##azines
azithromycin
azo
##azo
##azol
##azolam
##azole
##azoles
##azolid
##azolin
##azoline
##azolium
##azon
##azone
b
##b
B
##B
##Ḃ
##Ɓ
ba
##ba
##bA
Ba
BA
##BA
bab
Bab
Babesia
babies
baby
bac
##bac
Bac
BAC
BACE
##bach
##bachia
bacilli
Bacillus
back
##back
Back
BACK
backbone
background
Background
BACKGROUND
backgrounds
backsc
backward
bact
bacter
##bacter
Bacter
bacteremia
bacteri
Bacteri
bacteria
Bacteria
bacterial
##bacterial
Bacterial
bactericidal
bacteriophage
bacterium
##bacterium
Bacteroid
baculovirus
bad
BAFF
bag
##bage
baical
bal
##bal
Bal
BAL
balance
##balance
Balance
balanced
##balanced
balancing
BALB
BALF
ball
##ball
Ball
balloon
bamb
ban
##ban
banana
band
##band
bandgap
banding
bands
##bands
bandwidth
Banglades
Bangladesh
bank
Bank
##Bank
BaP
BAP
bar
##bar
Bar
barb
barc
barcoding
bare
bariatric
barium
bark
barley
baro
baroreflex
##Barr
barrel
Barrett
barri
barrier
barriers
Barriers
Bart
bas
Bas
BAS
basal
Basal
base
##base
Base
based
##based
Based
##Based
baseline
Baseline
basement
bases
basic
Basic
basilar
basin
Basin
basins
basis
basket
basolateral
basophil
bat
BAT
batch
##batch
batches
bath
bats
batter
Batter
batteries
battery
baumannii
Bax
Bay
Bayes
Bayesian
##bB
BB
##BB
BBB
BC
##BC
BCA
BCC
BCG
BCI
bcl
Bcl
BCL
BCP
BCR
BCS
Bd
BD
##BD
BDE
BDNF
be
##be
Be
##Be
BE
##BE
bead
beads
beam
##beam
beams
bean
##bean
bear
bearing
##bearing
bears
beat
##beat
beating
beats
bec
##bec
Bec
became
because
Because
Beck
Beclin
become
becomes
becoming
bed
##bed
Bed
beds
bedside
bee
beef
been
bees
beet
beetle
beetles
before
Before
beg
began
begin
beginning
begins
begun
beh
Beh
beha
behave
behaves
behavi
##behavi
Behavi
behavior
Behavior
behavioral
##behavioral
Behavioral
behaviors
behaviour
behavioural
behaviours
Behçet
behind
Beijing
being
##being
Being
beings
##beit
bel
Bel
Belgium
belie
belief
beliefs
believe
believed
##bell
belong
belonged
belonging
belongs
below
belt
bench
benchmark
bend
bending
bene
beneath
benef
##benef
Benef
benefici
beneficial
beneficiaries
benefit
##benefit
benefits
Benefits
benign
Benign
bent
benth
benthic
benz
##benz
Benz
benzene
##benzene
benzo
##benzo
benzoate
benzodiazep
benzodiazepine
benzodiazepines
benzoic
##benzoic
benzothi
benzyl
##benzyl
ber
##ber
Ber
BER
berberine
##berg
##berine
##berry
##bert
bes
besides
Besides
best
##best
Best
##bestos
bet
##bet
Bet
BET
beta
##beta
Beta
betaine
better
Better
between
Between
bevacizumab
beverage
beverages
bey
Bey
beyond
Beyond
BF
##BF
bFGF
BG
##BG
BH
##BH
bi
##bi
Bi
##Bi
BI
##BI
##bia
##bian
bias
biased
##biased
biases
bib
bibli
bic
bicarbonate
biceps
bidentate
bidirectional
bif
Bif
Bifid
Bifidobacterium
bifunctional
bifur
bifurc
bifurcation
big
Big
bil
##bil
bilateral
Bilateral
bilaterally
bilayer
bilayers
bile
##bile
biliary
bilingual
bilirubin
##bilities
##bility
bill
billion
bim
Bim
bimetallic
bimodal
bin
##bin
binary
bind
binder
binders
binding
##binding
Binding
binds
##bing
binge
binocular
bio
Bio
bioaccumulation
bioactive
bioactivity
bioassay
bioassays
bioavail
bioavailability
bioavailable
biob
bioc
bioch
biochar
biochemical
Biochemical
biochemically
biochemistry
biocompatible
biocontrol
biod
Biod
biodegrad
biodegradable
biodegradation
biodi
biodies
biodiesel
biodistribution
biodiversity
bioenerge
bioeth
biof
biofil
biofilm
biofilms
biofuel
biogas
bioge
biogenesis
biogenic
biogeochemical
bioinform
Bioinform
bioinformatic
bioinformatics
biologic
biological
Biological
biologically
biologics
biologists
biology
Biology
bioluminescence
biom
Biom
biomark
Biomark
biomarker
biomarkers
Biomarkers
biomass
biomaterial
biomaterials
biomechanical
Biomechanical
biomechanics
biomedical
biomimetic
biomolecular
biomolecules
##bion
biop
biophysical
biopsies
biopsy
Biopsy
biore
bioreactor
bioreactors
bioremediation
bios
Bios
biosensing
biosensor
biosensors
biosimilar
##biosis
biosur
biosynthesis
biosynthetic
biota
biotechn
biotechnology
biotic
##biotic
##biotics
biotin
biotinylated
bip
biphasic
biphenyl
biphenyls
bipolar
Bipolar
bipy
bipyridine
bir
bird
##bird
birds
##birds
birefring
birefringence
birth
##birth
Birth
births
bis
##bis
Bis
BIS
bisexual
bismuth
bisp
bisphenol
bisphosph
bisphosphonate
bisphosphonates
bist
bit
##bit
##bital
bite
bites
##bits
bitter
##bium
##biv
bival
bivalent
bivariate
BK
bl
##bl
Bl
##Bl
BL
##BL
bla
BLA
black
Black
bladder
##bladder
Bladder
blank
blast
##blast
Blast
blastocyst
blastocysts
ble
##ble
Ble
bleaching
bleeding
blend
blended
blends
bleomycin
blight
blind
##blind
blinded
##blinded
blindness
BLM
blo
block
##block
Block
blockade
Blockade
blockage
blocked
blocker
blockers
##blockers
blocking
Blocking
blocks
blood
##blood
Blood
bloodstream
bloom
blooms
blot
blotting
blow
blu
blue
Blue
blunt
blunted
##bly
Bm
BM
##BM
BMC
BMD
BMI
BMP
##BMP
BMS
BMSCs
BN
##BN
BNP
##BNP
bo
##bo
Bo
BO
##BO
boar
board
##board
Board
bod
BOD
bodies
##bodies
bodily
body
##body
Body
BOLD
bolus
bomb
bon
##bon
Bon
bond
##bond
Bond
bonded
##bonded
bonding
##bonding
bonds
bone
##bone
Bone
bones
BoNT
bony
book
##book
boost
booster
boosting
boot
bor
##bor
Bor
border
borderline
borders
born
##born
borne
##borne
boron
Borrel
Borrelia
bortezomib
bos
Bos
bot
Bot
both
Both
bott
bottlen
bottleneck
bottom
botulinum
bound
##bound
boundaries
boundary
bout
bouts
bov
bovine
Bovine
bovis
##bow
bowel
Bowel
box
##box
Box
boy
boys
bp
##bp
BP
##BP
BPA
##BPA
BPD
BPH
bpy
Bq
br
##br
Br
##Br
BR
##BR
bra
##bra
Bra
brach
brachi
brachial
brachytherapy
brack
brad
Brad
brady
bradycardia
bradykinin
BRAF
Bragg
brain
##brain
Brain
brains
brainstem
bran
##bran
Bran
branch
branched
branches
branching
brand
bras
brasiliensis
brass
Brass
Brassica
Brazil
Brazilian
BRCA
BrdU
bre
##bre
Bre
bread
breadth
break
##break
breakage
breakdown
breakfast
breaking
breakpoints
breaks
breakthrough
breast
Breast
breastfeeding
breat
breath
breathing
##bred
breed
breeding
##breeding
breeds
##brevi
brid
##brid
##bridement
bridge
##bridge
bridged
##bridged
bridges
bridging
brief
Brief
briefly
bright
brightness
Brill
bring
bringing
brings
Brit
British
bro
Bro
broad
Broad
broadband
broaden
broadening
broader
broadly
broil
broiler
broilers
broken
brom
##brom
bromide
##brominated
##bromo
bron
Bron
bronch
bronchi
bronchial
bronchiolitis
bronchitis
bronchoalveolar
bronchodil
bronchoscopy
brood
broth
brought
brow
Brow
brown
Brown
Brownian
bru
bruc
Bruc
bruce
brucei
Brucella
brucellosis
Brug
brush
brushes
##bs
##Bs
BS
##BS
BSA
Bt
BT
##BT
BTV
bu
##bu
Bu
##Bu
bubble
bubbles
buc
buccal
buck
bud
Bud
budding
budget
buds
buff
##buff
buffalo
buffer
buffered
buffering
buffers
bug
buil
build
building
##building
Building
buildings
built
bul
##bul
Bul
##bular
bulb
bulk
bulky
bull
bulls
bullying
##bumin
bund
bundle
bundles
bup
bupivacaine
buprenorphine
bur
##bur
Bur
burden
Burden
burdens
burg
##burg
burgdorferi
##burgh
buried
Burk
Burkholder
Burkholderia
burn
##burn
Burn
burning
burnout
burns
burst
bursts
bus
business
but
##but
But
##butanol
butter
butterfly
butyl
##butyl
butyrate
##butyrate
BV
BVDV
bw
BW
##BW
by
##by
By
BY
bypass
bystand
bystander
BZ
c
##c
C
##C
##ć
##Ć
##ĉ
##Ĉ
##č
##Č
##ċ
##Ċ
##ç
##Ç
ca
##ca
Ca
##Ca
CA
##CA
cab
CAB
cabbage
CABG
CAC
cache
cachexia
CaCl
Caco
cad
##cad
Cad
CAD
cada
cadaver
cadaveric
cadavers
cadherin
##cadherin
cadmium
Cadmium
Caenor
Caenorhabditis
caesarean
CAF
caffe
caffeic
caffeine
CAG
cage
cages
cal
##cal
Cal
CAL
##CAL
calc
##calc
Calc
calcane
calcification
calcifications
calcified
calcineurin
calcit
##calcit
calcitonin
calcium
Calcium
calculate
calculated
calculating
calculation
calculations
##cale
##cales
calf
calibr
calibrated
calibration
California
call
Call
called
##called
calling
callosum
calls
callus
calmodulin
calor
caloric
calorie
calorimetry
calpain
calv
calves
calving
cam
Cam
CaM
CAM
##CAM
Camb
came
camel
camer
Camer
camera
cameras
Cameroon
CaMKII
camp
cAMP
Camp
campaign
campaigns
Campylobacter
can
##can
Can
Canada
Canadian
canal
canals
cancell
cancellous
cancer
##cancer
Cancer
cancerous
##cancerous
cancers
cand
Cand
candid
Candid
Candida
candidate
candidates
candidiasis
canine
canis
cann
Cann
cannabinoid
cannabinoids
cannabis
cannulation
canonical
##canonical
canopy
cantile
cap
##cap
Cap
CaP
CAP
capabilities
capability
capable
capac
##capac
capacitance
capacities
capacity
Cape
capecitabine
capill
capillaries
capillary
capital
capped
##capped
capping
##caprolactone
caps
Caps
capsaicin
capsid
capsular
capsule
capsules
captive
capture
captured
captures
capturing
car
##car
Car
CAR
carb
##carb
Carb
carbam
carbamazepine
carbapenem
carbene
carbohyd
carbohydrate
carbohydrates
carbon
##carbon
Carbon
carbonate
carbonic
carbons
carbonyl
carboplatin
carbox
##carbox
carboxy
carboxyl
##carboxyl
carboxylase
carboxylate
carboxylic
##carboxylic
carboxymethyl
carc
carcass
carcasses
carcin
Carcin
carcinogen
carcinogenesis
carcinogenic
carcinogens
carcinoid
carcinoma
Carcinoma
carcinomas
card
cardi
##cardi
Cardi
cardiac
##cardiac
Cardiac
cardinal
cardio
cardiogenic
cardiology
Cardiology
cardiometabolic
cardiomy
Cardiomy
cardiomyocyte
cardiomyocytes
cardiomyopathy
cardiopulmonary
cardiotoxicity
cardiovascular
Cardiovascular
cardiover
cardioverter
care
##care
Care
career
careful
carefully
careg
caregiver
caregivers
caregiving
carers
cargo
Caribbean
caries
caring
Carlo
carn
carnitine
##carnitine
carniv
caro
Carol
Carolina
caroten
##carotene
carotenoid
carotenoids
carotid
Carotid
carp
carpal
carrageenan
carri
carriage
carried
carrier
carriers
carries
carry
carrying
cartil
cartilage
cartrid
cas
Cas
##Cas
CAS
casc
cascade
cascades
case
##case
Case
casein
cases
Cases
casp
caspase
Caspase
caspases
cass
cassava
cassette
cast
##cast
Cast
casting
castration
casual
cat
##cat
Cat
##CaT
CAT
catabolic
catabolism
catal
Catal
catalase
cataly
##cataly
catalysis
catalyst
catalysts
catalytic
##catalytic
Catalytic
catalytically
catalyze
catalyzed
##catalyzed
catalyzes
catalyzing
catar
cataract
catast
catastrophic
catch
catchment
catech
catechin
catechol
catecholamine
catecholamines
categ
categor
categorical
categories
categorization
categorized
category
##catenin
catfish
cath
Cath
cathepsin
catheter
##catheter
Catheter
catheterization
catheters
cathode
cation
##cation
cationic
cations
cats
cattle
Cauc
Caucasian
Caucasians
caud
caudal
caudate
caught
caus
Caus
causal
causality
causative
cause
##cause
caused
causes
causing
##causing
caution
cav
Cav
cava
cave
caveolin
cavern
cavernous
cavitation
cavities
cavity
CB
##CB
CBCT
CBD
CBF
CBP
CBS
CBT
cc
##cc
CC
##CC
CCA
CCC
CCD
CCI
CCK
CCl
CCL
CCM
CCN
CCR
CCS
CCSD
CCT
cd
Cd
##Cd
CD
##CD
Cdc
CDC
CDDP
CDH
CDI
Cdk
CDK
CDKN
cDNA
CDR
CdS
##CDs
CdSe
CdTe
ce
##ce
Ce
CE
##CE
CEA
##cean
cecal
##ced
##cedural
cef
ceft
##cein
##ceived
##cel
Cel
##cele
celecoxib
celiac
cell
##cell
Cell
##Cell
cells
##cells
Cells
cellul
cellular
##cellular
Cellular
cellulase
cellulose
##cellulose
cement
##cement
cements
##cemia
##cemic
##cence
##cens
census
cent
##cent
Cent
center
##center
Center
centered
##centered
centers
Centers
centi
##centi
centr
##centr
central
##central
Central
centrally
##centration
##centrations
centre
##centre
Centre
##centred
centres
##centric
centrifug
centrifugation
centroid
centrom
centromere
centros
centrosome
##cents
centuries
century
CeO
cep
##cep
cephal
##cephal
cephalospor
##cephalus
##cephaly
##ceps
##cept
##cepti
##ceptibility
##ceptible
##ception
##ceptions
##ceptive
##ceptor
##ceptors
##cepts
##ceptual
cer
##cer
Cer
CER
##cera
##ceral
ceramic
##ceramic
ceramics
ceramide
##ceramide
cere
cereal
cereals
cereb
##cereb
Cereb
cerebellar
##cerebellar
cerebellum
cerebral
Cerebral
cerebrospinal
cerebrovascular
cereus
cerevis
cerevisiae
##cerol
##cers
certain
Certain
certainly
certification
certified
cerv
cervical
Cervical
cervix
##ces
CES
cesarean
##cess
cessation
##cession
##cessive
##cessively
cet
##çet
cetuximab
cf
CF
##CF
CFA
CFS
CFTR
cfu
CFU
CG
##CG
cGMP
CGRP
ch
##ch
Ch
##Ch
CH
##CH
cha
##cha
Cha
Chagas
chain
##chain
Chain
chains
chair
##chair
chalc
chall
challeng
Challeng
challenge
challenged
challenges
Challenges
challenging
chamb
chamber
chambers
chance
chances
chang
##chang
change
##change
Change
changed
##changed
changes
##changes
Changes
changing
Changing
chann
channel
##channel
channels
##channels
##chanter
##chanteric
chaotic
chaper
chaperone
chaperones
chapter
char
Char
character
##character
Character
characteris
characterise
characterised
characteristic
characteristics
Characteristics
characterize
characterized
##characterized
characterizes
characterizing
characters
Charcot
charge
##charge
Charge
charged
##charged
charges
charging
chart
charts
CHB
CHC
CHD
che
##che
Che
cheap
check
Check
checked
checklist
Checklist
checkpoint
##ched
cheese
chel
##chel
chelate
chelating
chelation
chelator
chem
##chem
Chem
chemical
##chemical
Chemical
chemically
chemicals
chemistry
Chemistry
chemo
chemoattract
chemoattractant
chemokine
chemokines
chemometric
chemopre
chemoprevention
chemopreventive
chemoradi
chemoradiation
chemore
chemoresistance
chemot
chemotactic
chemotaxis
chemotherapy
Chemotherapy
Chen
##cher
##chers
##ches
chest
Chest
chewing
CHF
chi
##chi
Chi
CHI
##chial
##chicine
chick
Chick
chicken
chickens
chicks
chief
child
##child
Child
childbearing
childbirth
childhood
Childhood
children
##children
Children
Chile
chilling
chim
chimer
chimeric
chimpanze
chimpanzees
chin
##chin
China
chinensis
Chinese
##ching
chip
##chip
ChIP
chips
chir
chiral
Chiral
chirality
chit
chitin
chitinase
chitosan
##chitosan
Chitosan
Chk
Chl
chlamy
Chlamy
Chlamydia
Chlamydomonas
chlor
##chlor
Chlor
chloramphenicol
Chlorella
chlorhexidine
chloride
##chloride
chlorinated
##chlorinated
chlorine
chloro
##chloro
chloroform
chlorophyll
chloroplast
chloroplasts
chloroquine
chlorpyrifos
cho
Cho
CHO
choice
##choice
choices
chol
Chol
cholangi
cholangitis
cholec
cholecyst
cholecystectomy
cholecystitis
choler
cholera
cholerae
cholest
cholestasis
cholester
cholesterol
##cholesterol
Cholesterol
##cholesterole
##cholesterolemia
##cholic
choline
##choline
cholinergic
cholines
##cholines
##cholinesterase
chond
##chond
Chond
##chondral
chondro
chondrocyte
chondrocytes
chondrogenic
chondroitin
##chool
choose
choosing
CHOP
chor
chord
chori
chorionic
choroid
choroidal
chose
chosen
chow
##chro
chrom
##chrom
Chrom
chromat
Chromat
chromatic
chromatin
Chromatin
chromatographic
chromatography
chromium
chromophore
chromophores
chromosomal
chromosome
##chromosome
Chromosome
chromosomes
chron
##chron
chronic
##chronic
Chronic
chronically
chronological
##chrotron
chrys
Chrys
##chus
chyl
chym
##ci
Ci
CI
##CI
CIA
CID
##cidin
##cience
cigare
cigarette
Cigarette
cigarettes
cil
cili
cilia
ciliary
cin
##cin
CIN
##cinated
##cine
cinerea
cing
##cing
cingulate
cinn
cinnam
##cious
CIP
ciprofloxacin
cir
circ
##circ
Circ
circadian
circle
circuit
##circuit
circuitry
circuits
circular
circulating
Circulating
circulation
circulatory
circum
circumference
circumferential
circumst
circumstances
circumvent
cirrh
cirrhosis
cirrhotic
cis
##cis
Cis
CIs
CIS
##cision
cisplatin
Cisplatin
cit
##cit
##citabine
cited
citi
cities
citizens
citr
Citr
citrate
citric
citrus
Citrus
city
City
##cium
civ
civil
##ck
CK
##CK
CKD
cl
##cl
Cl
##Cl
CL
##CL
cla
CLA
clad
clade
clades
claim
claimed
claims
clamp
##clamp
clar
clarification
clarified
clarify
clarity
class
##class
Class
classes
classic
classical
##classical
Classical
classically
classification
Classification
classifications
classified
classifier
classifiers
classify
classifying
classroom
clath
clathrin
claud
claudin
clav
clay
##CLC
CLD
cle
##cle
Cle
clean
cleaning
clear
Clear
clearance
cleared
clearing
clearly
cleavage
cleave
cleaved
cleft
##cler
##clerosis
##cles
CLI
click
client
clients
clim
##clim
climate
Climate
climatic
climbing
clin
Clin
clinic
Clinic
clinical
##clinical
Clinical
clinically
Clinically
clinician
clinicians
Clinicians
clinics
CLL
clo
ClO
clock
clon
clonal
clone
cloned
clones
cloning
Cloning
clopidogrel
clos
close
closed
closely
closer
closest
closing
Clostr
Clostridium
closure
##closure
clot
cloth
clotting
cloud
clozapine
CLP
##CLs
club
##cluding
clues
clus
##CLUS
##clusion
##clusive
cluster
##cluster
Cluster
clustered
clustering
clusters
cm
##cm
cM
CM
##CM
CMA
CMC
CML
CMOS
CMR
CMS
CMT
CMV
##cn
Cn
CN
##CN
##cNAc
CNS
CNT
##CNT
CNTs
##CNTs
CNV
CNVs
co
##co
Co
##Co
CO
##CO
CoA
##CoA
coactivator
coagul
##coagul
coagulation
coagulopathy
coal
coales
coarse
coast
Coast
coastal
coat
coated
##coated
coating
coatings
Cob
cobal
cobalt
coc
cocaine
cocc
coch
Coch
cochlea
cochlear
Cochrane
cock
cocktail
coculture
cod
COD
code
coded
codes
coding
##coding
codon
codons
coeff
coefficient
coefficients
##coelastic
coenzyme
coerc
coevolution
coex
coexist
coexistence
coexisting
coexpression
cofactor
cofactors
coffee
cogn
cognate
cognition
cognitive
##cognitive
Cognitive
cognitively
coh
##coh
cohe
coherence
coherent
cohesion
##cohol
##coholic
cohort
Cohort
cohorts
COI
coil
##coil
coiled
coils
coinc
coincided
coincidence
coincident
coincides
coinfection
col
##col
Col
COL
colchicine
cold
Cold
Cole
colectomy
Coleoptera
coli
coliform
colistin
colitis
coll
##coll
Coll
collabor
Collabor
collaboration
collaborative
Collaborative
collagen
Collagen
collapse
collateral
colle
colleag
colleagues
collec
collect
collected
collecting
collection
collections
collective
collectively
Collectively
college
College
collim
collision
collisions
colloid
colloidal
colloids
colocal
colocalization
colocalized
Colomb
Colombia
colon
Colon
colonic
colonies
colonization
colonize
colonized
colonoscopy
colony
color
##color
Color
coloration
colorectal
Colorectal
colored
colorimetric
colors
colostrum
colour
Columb
Columbia
column
##column
columnar
columns
com
##com
Com
COM
coma
comb
Comb
combat
combination
Combination
combinations
combinatorial
combine
combined
Combined
combines
combining
Combining
combustion
come
##come
comes
##comes
comet
comfort
coming
##coming
##comings
##comit
comm
commens
commensal
comment
commentary
comments
commerc
Commerc
commercial
commercially
commission
Commission
commit
Commit
commitment
committed
committee
Committee
common
Common
commonest
commonly
commun
##commun
Commun
communic
##communic
##communicable
communicate
communicating
communication
Communication
communications
communities
community
Community
comorbid
comorbidities
comorbidity
comp
##comp
Comp
COMP
compact
compaction
compan
companies
companion
company
compar
Compar
comparable
comparative
Comparative
comparatively
compare
compared
Compared
compares
comparing
Comparing
comparison
Comparison
comparisons
Comparisons
compart
##compart
compartment
##compartment
compartmental
compartments
compassion
compatibility
compatible
compelling
compens
compensate
compensated
compensation
compensatory
compet
compete
competence
competencies
competency
competent
##competent
competi
competing
competit
competition
competitive
##competitive
compiled
compl
complain
complained
complaint
complaints
comple
##comple
Comple
complement
complementary
Complementary
complementation
complemented
complete
Complete
completed
completely
completeness
completing
completion
complex
##complex
Complex
complexation
complexed
complexes
Complexes
complexities
complexity
compliance
compliant
complicate
complicated
complicating
complication
complications
Complications
compon
component
##component
Component
components
compos
Compos
composed
composite
Composite
composites
composition
Composition
compositional
compositions
compost
composting
compound
Compound
compounds
Compounds
compr
comprehen
Comprehen
comprehension
comprehensive
Comprehensive
comprehensively
compressed
compression
compressive
comprise
comprised
comprises
comprising
comprom
compromise
compromised
compromises
compromising
compulsive
##compulsive
comput
Comput
computation
computational
Computational
computationally
computations
compute
computed
##computed
Computed
computer
##computer
Computer
computerized
computing
COMT
con
##con
Con
##Con
CON
conc
Conc
conce
conceived
concentr
concentrate
concentrated
concentrates
concentration
##concentration
Concentration
concentrations
Concentrations
concentric
concept
##concept
conception
concepts
conceptual
concer
Concer
concern
concerned
concerning
concerns
concert
concerted
concise
concl
conclude
concluded
concludes
CONCLUS
conclusion
Conclusion
conclusions
Conclusions
CONCLUSIONS
conclusive
concomit
Concomit
concomitant
Concomitant
concomitantly
concordance
concordant
concrete
concurrent
Concurrent
concurrently
concussion
cond
condens
condensation
condensed
condition
##condition
Condition
conditional
conditioned
##conditioned
conditioning
##conditioning
conditions
Conditions
condom
condu
conduc
##conduc
conduct
conductance
conducted
conducting
conduction
conductive
conductivity
conduit
condyl
condylar
condyle
cone
cones
##cones
conf
##conf
Conf
confer
conference
Conference
conferred
conferring
confers
confid
confidence
config
configur
configuration
configurations
confined
confinement
confir
confirm
confirmation
confirmatory
confirmed
confirming
confirms
conflic
conflict
conflicting
conflicts
confocal
Confocal
conform
Conform
conformal
conformation
conformational
conformations
conformers
confound
confounded
confounders
confounding
confron
confronted
confusion
cong
Cong
congen
Congen
congeners
congenital
Congenital
congestion
congestive
Congo
congru
congruent
conical
conidia
conj
conjug
##conjug
Conjug
conjugate
conjugated
##conjugated
conjugates
conjugation
conjunction
conjunctiv
conjunctival
conn
##conn
Conn
connect
connected
connecting
connection
connections
connective
connectivity
connexin
cons
##cons
Cons
conscious
consciousness
consecutive
consecutively
consensus
Consensus
consent
consequ
consequence
consequences
consequent
consequently
Consequently
##conser
Conser
conserv
conservation
conservative
conservatively
conserved
consid
Consid
consider
Consider
considerable
Considerable
considerably
consideration
considerations
considered
considering
Considering
considers
consist
Consist
consisted
consistency
consistent
##consistent
Consistent
consistently
Consistently
consisting
consists
consolid
consolidation
consortium
Consortium
conspecific
conspicuous
const
constant
constantly
constants
constipation
constit
constitu
constituent
constituents
constitute
constituted
constitutes
constituting
constitutive
constitutively
constrain
constrained
constraint
constraints
constric
constriction
construc
construct
constructed
constructing
construction
Construction
constructs
consult
consultation
consultations
consum
consume
consumed
consumer
consumers
consuming
##consuming
consumption
Consumption
cont
##cont
Cont
contact
##contact
Contact
contacts
contag
contain
contained
containing
##containing
contains
contamin
contaminant
contaminants
contaminated
##contaminated
contamination
contem
Contem
contemporary
content
##content
Content
contents
contex
context
Context
contexts
contextual
contig
contiguous
contin
##contin
Contin
continental
conting
contingent
continu
continually
continuation
continue
continued
continues
continuing
continuity
continuous
Continuous
continuously
continuum
contour
contours
contr
Contr
contrac
contracep
contraception
contraceptive
contraceptives
contract
contractile
contractility
contraction
contractions
contracture
contradic
contradictory
contraindic
contral
contralateral
contrary
Contrary
contrast
##contrast
Contrast
contrasted
contrasting
contrasts
contrib
Contrib
contribut
contribute
contributed
contributes
contributing
contribution
Contribution
contributions
contributor
contributors
control
##control
Control
controll
controllable
controlled
##controlled
Controlled
controller
controlling
Controlling
controls
controver
controversi
controversial
controversies
controversy
conv
##conv
conve
convection
conven
convenience
convenient
conventional
Conventional
conventionally
conver
##conver
Conver
converge
convergence
convergent
convers
Conversely
conversion
##conversion
Conversion
convert
converted
converting
##converting
converts
convex
convey
convinc
convincing
##convulsive
cooked
cooking
cool
cooling
cooper
cooperate
cooperation
cooperative
cooperativity
coord
##coord
Coord
coordinate
##coordinate
coordinated
##coordinated
coordinates
coordinating
coordination
cop
##cop
Cop
COP
COPD
cope
##cope
##copenia
copep
copies
coping
##copl
##coplasma
##coplasmic
copolymer
copolymers
copper
Copper
##coprotein
copy
##copy
Copyright
CoQ
cor
##cor
Cor
coral
corals
cord
Cord
cords
core
##core
Core
cores
corn
corne
cornea
corneal
Corneal
corner
cornerstone
corneum
coron
corona
coronal
coronary
Coronary
coronavirus
corp
corpus
correc
correct
corrected
##corrected
correcting
correction
Correction
corrections
corrective
correctly
corrects
correl
Correl
correlate
correlated
correlates
Correlates
correlating
correlation
##correlation
Correlation
correlations
Correlations
correspond
corresponded
correspondence
corresponding
Corresponding
corresponds
corrob
corroborate
corroborated
corrosion
CORT
cortex
cortic
Cortic
cortical
##cortical
Cortical
cortices
corticospinal
corticoster
corticosteroid
corticosteroids
corticosterone
cortisol
Cory
Coryne
Corynebacterium
cos
COS
cosm
cosmetic
cosmetics
cost
##cost
Cost
costly
costs
cot
Cot
cotrans
cotton
cotyled
cough
Coul
could
Coulomb
##coum
coumarin
coun
Council
couns
counsel
counseling
counselling
count
Count
counted
counter
counteract
counterm
counterpart
counterparts
counties
counting
countries
country
counts
county
County
coupl
##coupl
Coupl
couple
coupled
##coupled
Coupled
couples
coupling
##coupling
Coupling
couplings
cour
course
##course
courses
courts
##CoV
covalent
##covalent
covalently
covari
covariance
covariate
covariates
cover
coverage
covered
##covered
covering
covers
cow
cows
cox
Cox
COX
cp
##cp
Cp
##Cp
CP
##CP
CPA
CPAP
CPB
CPC
CPD
CPE
CpG
CPP
CPR
CPS
CPT
CQ
cr
##cr
Cr
##Cr
CR
##CR
crab
crack
cran
crani
cranial
##cranial
craniofacial
craniotomy
crash
crashes
crass
craving
CRC
cre
Cre
##Cre
cream
creat
create
created
creates
creatine
creating
creatinine
creation
creative
CREB
cred
cres
crest
CRF
CRH
cri
##cri
Cri
CRI
##crib
##cribed
##cribing
cric
crim
crime
criminal
##cript
##cription
##criptional
##criptions
##criptive
##cripts
crisis
CRISPR
criter
criteria
Criteria
criterion
critic
critical
##critical
Critical
critically
CRM
cro
Cro
Croati
Crohn
Cron
crop
crops
cros
cross
##cross
Cross
crossed
crosses
crossing
crosslinked
crosslinking
crossover
crosstalk
crow
crowding
crown
crowns
CRP
##CRP
CRPC
CRS
CRT
##CRT
cruc
crucial
cruciate
crude
crus
crust
crustace
cruzi
cry
Cry
cryo
cryopres
cryopreserved
cryp
crypt
Crypt
cryptic
Cryptococcus
Cryptosporidium
cryst
crystal
##crystal
Crystal
crystall
##crystall
crystalline
##crystalline
crystallinity
crystallization
crystallized
crystallography
crystals
##cs
Cs
##Cs
CS
##CS
CsA
CSA
CSC
CSCs
CSD
CSE
CSF
##CSF
CSP
CST
ct
##ct
Ct
CT
##CT
CTA
CTAB
CTC
##CTC
CTCs
CTD
CTGF
##ctic
CTL
CTLA
CTLs
cTn
##ctomy
CTS
CTX
cu
Cu
##Cu
CU
cub
cubic
cuc
Cuc
cucumber
cue
##cue
cued
cues
cuff
cul
##cul
Cul
Culex
Culic
culmin
cult
cultiv
cultivar
cultivars
cultivated
cultivation
cultural
##cultural
culturally
culture
##culture
Culture
cultured
##cultured
cultures
culturing
cum
Cum
##cumin
cumulative
cumulus
CuO
cup
cur
##cur
Cur
curative
curcumin
Curcumin
cure
cured
curing
current
##current
Current
currently
Currently
currents
curric
curricula
curriculum
curv
curvature
curve
curved
curves
##cus
Cushing
cust
custom
customized
cut
##cut
cutaneous
##cutaneous
Cutaneous
cutic
cuticle
cutoff
cutting
cv
CV
##CV
CVD
CW
Cx
CX
##CX
CXCL
CXCR
cy
##cy
Cy
CY
cyan
##cyan
Cyan
cyanide
cyano
cyanobacteria
cyanobacterial
cyanobacterium
cycl
##cycl
Cycl
cyclase
cycle
##cycle
cycles
cyclic
Cyclic
cyclin
Cyclin
cycling
cyclization
cyclo
##cyclo
cycload
cycloaddition
##cyclodextrin
cyclohex
cyclooxygenase
cyclopent
cyclospor
cyclosporine
cyl
cylind
cylinder
cylindrical
cyn
cyp
Cyp
CYP
Cyprin
Cys
##Cys
cyst
Cyst
cystatin
cyste
cystectomy
cysteine
##cysteine
cystic
Cystic
cystitis
cysts
cyt
##cyt
Cyt
cytochrome
Cytochrome
cytogenetic
cytokeratin
cytokine
Cytokine
cytokines
cytokinesis
cytokinin
cytological
cytology
cytomegalovirus
cytometric
cytometry
cytoplasm
cytoplasmic
cytoprotective
cytore
cytos
cytosine
##cytosine
cytoskeletal
cytoskeleton
cytosol
cytosolic
cytotox
cytotoxic
Cytotoxic
cytotoxicity
Cytotoxicity
Cz
CZ
Czech
d
##d
D
##D
##ď
##Ď
##Ḋ
##đ
##Đ
##ḍ
##ð
##Ð
da
##da
##dA
Da
##Da
DA
##DA
dab
dabigatran
dac
daily
##daily
Daily
dairy
dam
##dam
Dam
damage
Damage
damaged
damages
damaging
damp
damping
dams
Dan
danger
dangerous
Danio
Danish
DAP
Daphnia
Dar
dark
##dark
darkness
Darwin
das
DAS
##dase
dat
Dat
DAT
data
Data
datab
Datab
database
Database
databases
datas
dataset
datasets
date
##date
dates
dating
daughter
##Dawley
day
##day
Day
days
##days
daytime
db
##db
dB
DB
##DB
DBA
DBP
DBS
dc
##dc
DC
##DC
DCA
DCD
DCE
DCIS
DCM
DCs
##DCs
##DCS
DD
##DD
DDR
DDT
de
##de
De
##De
DE
##DE
DEA
deacetyl
deacetylase
deacetylases
deactivation
dead
deadly
deaf
deafness
deal
dealing
deals
deaminase
death
##death
Death
deaths
deb
Deb
debate
debated
debates
debil
debilitating
debridement
debris
dec
##dec
Dec
decade
decades
decarboxyl
decarboxylase
decay
dece
deceased
decel
decellular
December
dechlor
decid
decide
decided
deciding
decidual
deciduous
decipher
decis
decision
Decision
decisions
decisive
decl
decline
declined
declines
declining
decoction
decoding
decolor
decom
decomp
decompensated
decomposed
decomposition
decompression
decont
decontamination
deconvolution
decorated
decre
Decre
decrease
decreased
Decreased
decreases
decreasing
ded
##ded
dedicated
deduc
deduced
##deed
deem
deemed
deep
Deep
deeper
deeply
deer
def
##def
Def
default
defect
defective
defects
Defects
defence
defense
defenses
defensive
defer
defibrill
defic
deficiencies
deficiency
##deficiency
Deficiency
deficient
##deficient
deficit
##deficit
deficits
defin
Defin
define
defined
##defined
defines
defining
Defining
definite
definition
definitions
definitive
deflection
deform
deformable
deformation
deformations
deformed
deformities
deformity
deg
DEG
degenerate
degeneration
degenerative
degra
degrad
degradation
Degradation
degrade
degraded
degrades
degrading
##degrading
degran
degranulation
degree
##degree
degrees
DEGs
dehis
DEHP
##dehy
dehyd
##dehyde
##dehydes
dehydration
dehydro
dehydrogen
dehydrogenase
del
##del
Del
delay
delayed
Delayed
delaying
delays
dele
deleted
deleterious
deletion
##deletion
Deletion
deletions
delib
delicate
delim
deline
delineate
delineated
delineation
delirium
deliver
delivered
deliveries
delivering
delivers
delivery
##delivery
Delivery
delt
Delt
delta
##delta
Delta
##Delta
dem
##dem
Dem
demand
demanding
demands
dementia
Dementia
demethyl
demethylation
demographic
##demographic
Demographic
demographics
demonstr
demonstrate
demonstrated
demonstrates
demonstrating
demonstration
demyel
demyelinating
demyelination
den
##den
Den
DEN
denaturation
dend
Dend
dendr
dendrim
dendrimer
dendrimers
dendrites
dendritic
Dendritic
denervation
dengue
Dengue
denitr
denitrification
Denmark
denoted
dens
##dens
dense
##dense
densely
densities
density
##density
Density
dent
dental
Dental
dentate
denti
dentin
dentistry
dentists
dentition
denture
##denum
DENV
deoxy
##deoxy
dep
##dep
Dep
##Dep
DEP
depart
Depart
department
Department
departments
depend
##depend
Depend
depended
dependence
##dependence
dependencies
dependency
dependent
##dependent
##Dependent
##dependently
depending
Depending
depends
depic
depicted
deple
depleted
##depleted
depletion
Depletion
deploy
deployed
deployment
depolar
depolarization
depos
##depos
deposit
deposited
deposition
##deposition
deposits
depres
##depress
depressed
depression
Depression
depressive
Depressive
depri
##depri
deprivation
deprived
deprot
depth
##depth
depths
der
##der
Der
##Der
derang
dere
##dered
deregulated
deregulation
deriv
##deriv
Deriv
derivation
derivative
derivatives
derivatization
derive
derived
##derived
##Derived
deriving
##derly
derm
Derm
dermal
##dermal
dermat
Dermat
dermatitis
dermatological
dermatology
dermis
##ders
des
##des
Des
DES
desatur
desc
descending
descent
descri
describ
describe
described
##described
describes
describing
descrip
descript
description
descriptions
descriptive
descriptors
desensi
desensitization
desert
desic
desiccation
design
##design
Design
designated
designed
##designed
designing
designs
desirable
desire
desired
desm
desorption
despite
Despite
dest
destabil
destabilization
destr
##destr
destro
destroyed
destruction
destructive
##destructive
det
##det
Det
detachment
detail
detailed
Detailed
details
detect
detectable
detected
detecting
Detecting
detection
Detection
detector
##detector
detectors
detects
deter
deterg
detergent
deterior
deteriorated
deterioration
determ
##determ
Determ
determin
determinant
determinants
Determinants
determination
Determination
determinations
determine
determined
determines
determining
##determining
Determining
deterministic
detox
detoxification
detrim
detrimental
deuter
deuterium
dev
devast
devastating
develop
##develop
Develop
developed
##developed
developing
Developing
development
Development
developmental
Developmental
developmentally
developments
develops
devi
deviation
deviations
device
Device
devices
devised
devoid
devoted
dex
##dex
Dex
DEX
dexamethasone
dexmedetomidine
dext
dextran
DF
##DF
DFS
DFT
##DFT
##dG
DG
##DG
##dh
DH
##DH
DHA
DHEA
di
##di
Di
##Di
DI
##DI
##dia
Dia
diab
##diab
Diab
diabetes
##diabetes
Diabetes
diabetic
##diabetic
Diabetic
diabetics
diag
diagn
##diagn
Diagn
diagnos
diagnose
diagnosed
##diagnosed
diagnoses
diagnosing
diagnosis
##diagnosis
Diagnosis
diagnostic
##diagnostic
Diagnostic
diagnostics
diagram
diagrams
dial
##dial
##dialdehyde
dialogue
dialysis
##dialysis
diamet
diameter
##diameter
diameters
diamond
diap
diapause
diaph
diaphrag
diaphragm
diaphragmatic
diarr
diarrh
diarrhea
diarrhoea
diary
diast
diastere
diastolic
diatom
diaz
diazepam
dibenz
##dible
##dibular
dic
##dic
Dic
DIC
Dicer
dich
##dich
dichlor
##dichlor
dichloromethane
dichro
dichroism
diclofenac
dict
##diction
did
die
died
dielectric
dies
diesel
diet
Diet
dietary
Dietary
diethyl
diets
diff
##diff
Diff
differ
differe
differed
differen
difference
differences
Differences
different
Different
differenti
differential
Differential
differentially
differentiate
differentiated
##differentiated
differentiating
differentiation
##differentiation
Differentiation
differently
differing
differs
diffic
Diffic
difficile
difficult
difficulties
difficulty
diffract
diffraction
diffus
diffuse
Diffuse
diffusion
##diffusion
Diffusion
diffusive
diffusivity
dig
##dig
Dig
digest
digested
digesti
digestibility
digestion
digestive
digit
digital
Digital
digits
dihedral
dihyd
dihydro
##dihydro
dihydroxy
##dihydroxy
##dii
dil
dilatation
dilated
dilation
dilemma
dilemmas
dilute
diluted
dilution
dim
##dim
dimension
##dimension
dimensional
##dimensional
##Dimensional
dimensionality
dimensions
dimer
##dimer
dimeric
dimerization
dimers
dimeth
dimethyl
##dimethyl
dimin
diminish
diminished
diminishes
diminishing
dimorphic
dimorphism
din
##din
##dine
##ding
dinoflag
dinuclear
dinucleotide
diode
diodes
diol
dione
dioxide
dioxin
dip
##dip
Dip
dipeptidyl
diphenyl
##diphenyl
diphosphate
diphthe
dipl
diploid
dipolar
dipole
Diptera
Dir
Dirac
direc
Direc
direct
Direct
directed
##directed
directing
direction
directional
##directional
directions
directly
directs
dis
##dis
Dis
disabilities
disability
Disability
disabled
disabling
disadvant
disadvantage
disadvantaged
disadvantages
disag
disapp
disappear
disappearance
disappeared
disassembly
disaster
disasters
disc
##disc
Disc
discer
discern
disch
discharge
##discharge
discharged
discharges
discipl
##disciplinary
discipline
disciplines
discl
disclose
disclosed
disclosure
discom
discomfort
disconn
discontin
discontinuation
discontinued
discontinuous
discordant
discounting
discour
discourse
discover
discovered
discoveries
discovering
discovery
Discovery
discre
discrep
discrepancies
discrepancy
discrete
discrim
Discrim
discrimin
discriminant
discriminate
discriminated
discriminating
discrimination
discriminative
discriminatory
discs
discus
discuss
discussed
discusses
discussing
discussion
Discussion
discussions
dise
##dise
Dise
disease
##disease
Disease
diseased
diseases
Diseases
disent
disequilibrium
disinf
disinfection
disinteg
disintegration
disk
disks
disl
dislocation
dislocations
dismut
dismutase
disord
disorder
Disorder
disordered
disorders
Disorders
disp
dispar
disparate
disparities
disparity
dispensable
disper
##disper
##dispers
dispersal
dispersed
dispersion
dispersions
dispersive
displ
displaced
displacement
displacements
display
displayed
displaying
displays
disposable
disposal
disposition
disprop
disproportion
disrup
Disrup
disrupt
disrupted
disrupting
disruption
Disruption
disruptions
disruptive
disrupts
diss
Diss
dissatisfaction
dissect
dissected
dissecting
dissection
dissem
disseminated
dissemination
dissi
dissimilar
dissip
dissipation
dissoci
dissociated
dissociation
dissociative
dissolution
dissolved
dist
##dist
Dist
distal
Distal
distance
##distance
distances
distant
distension
distilled
distinc
distinct
Distinct
distinction
distinctive
distinctly
distingu
distinguish
distinguishable
distinguished
distinguishes
distinguishing
distorted
distortion
distortions
Distr
distract
distraction
distractor
distractors
distress
distrib
distributed
distribution
Distribution
distributions
distric
district
District
districts
disturb
disturbance
disturbances
disturbed
disulf
disulfide
dithi
##dition
##ditional
##ditionally
##ditions
##ditive
diuretic
diuretics
diurnal
div
Div
divalent
diver
Diver
diverged
divergence
divergent
divers
diverse
Diverse
diversification
diversion
diversity
Diversity
divertic
diverticulum
divid
divide
divided
dividing
division
divisions
dizziness
DJ
dl
##dl
##dL
DL
##DL
DLB
DLBCL
##dle
##dlers
##dles
DLP
DLS
dm
##dm
DM
##DM
DMA
DMD
DMF
DMI
DMN
DMP
DMS
DMSO
DN
Dna
DNA
##DNA
DNAs
DNase
DNMT
DNP
do
##do
Do
DO
##DO
doc
Doc
DOC
docetaxel
dock
docking
docosahexaenoic
doctor
doctors
document
documentation
documented
##documented
documenting
documents
dodec
dodecyl
does
Does
dog
dogs
doi
DOI
doing
dol
dolph
dom
##dom
Dom
DOM
domain
##domain
Domain
domains
##domains
domestic
domestication
##dometh
##domethacin
##dominal
dominance
dominant
##dominant
dominate
dominated
##dominated
dominates
##domonas
##domy
don
##don
Don
DON
donation
done
donor
##donor
Donor
donors
door
dop
##dop
Dop
##DOPA
dopamine
##dopamine
Dopamine
dopaminergic
dopant
doped
##doped
doping
Doppler
dor
##dor
##dorferi
dorm
dormancy
dormant
dors
dorsal
dorsi
dorsolateral
dos
Dos
dosage
dosages
dose
##dose
Dose
dosed
doses
dosimetric
dosimetry
dosing
dot
dots
doub
double
Double
doubled
doubling
doubly
doubt
down
##down
Down
downregulated
downregulating
downregulation
Downregulation
downstream
downward
dox
Dox
DOX
doxorubicin
doxyc
doxycycline
DP
##DP
dpp
DPP
DPPH
DQ
##DQ
dr
##dr
Dr
DR
##DR
draft
drag
drain
drainage
draining
dramatic
dramatically
drastic
drastically
draw
##draw
Draw
drawback
drawbacks
drawing
Drawing
drawn
draws
DRB
##DRB
DRD
dream
dress
dressing
dressings
DRG
dri
##dri
Dri
dried
##dried
drift
drilling
drink
drinkers
drinking
drinks
drive
driven
##driven
driver
drivers
drives
driving
dro
##dro
drop
drople
droplet
droplets
dropped
drops
Dros
Drosophila
drought
##droxy
drug
##drug
Drug
drugs
Drugs
dry
Dry
drying
##drying
ds
##ds
Ds
##Ds
DS
##DS
DSA
DSB
DSBs
DSC
dsDNA
DSM
DSP
dsRNA
DSS
##dt
DT
DTC
DTI
du
##du
##dU
Du
DU
dual
Dual
duc
##duc
Duc
##duce
##duced
##duces
Duchenne
##ducible
##ducing
duck
ducks
duct
##duct
ductal
##ductal
##ductase
##duction
##ductive
##ductor
ducts
##ducts
ductus
due
Due
duod
duodenal
duodenum
duplex
duplicated
duplication
duplications
dur
durability
durable
dural
##dural
duration
durations
during
During
dust
Dutch
duty
##dV
DV
##DV
DVT
DW
dwarf
##dwelling
DWI
##dx
DXA
dy
##dy
Dy
DY
dyads
dye
dyes
dying
dyn
dynam
dynamic
##dynamic
Dynamic
dynamical
dynamically
dynamics
Dynamics
dynamin
dyne
dynein
dys
##dys
Dys
dysfunction
Dysfunction
dysfunctional
dysfunctions
dyskinesia
dyslex
dyslexia
dyslipidemia
dysm
dysp
dysphagia
dysplasia
dysplastic
dyspnea
dysregulated
dysregulation
dyst
dystonia
dystroph
dystrophic
dystrophin
dystrophy
e
##e
E
##E
##é
##É
##è
##È
##ĕ
##ê
##ế
##ệ
##Ê
##ě
##ë
##Ë
##Ẽ
##ė
##Ė
##ȩ
##ę
##ē
##Ē
##ɛ
##Ɛ
##ea
EA
##EA
each
Each
EAE
##eal
##ealand
##ean
ear
##ear
Ear
##earch
##eared
##earing
earlier
Earlier
earliest
early
Early
##earman
ears
##ears
##earson
earth
Earth
earthquake
eas
##eas
ease
easier
easily
east
##east
East
eastern
Eastern
easy
eat
##eat
eating
Eating
##eb
Eb
EB
##EB
Ebola
EBP
##EBP
EBV
ec
##ec
Ec
EC
##EC
##ecal
##ecan
eccentric
##ecd
ECD
##ece
##eces
ECG
ech
##ech
Ech
##echan
##echanical
##echanics
echin
Echin
##echlor
##echn
echo
##echo
echocardi
Echocardi
##ecific
##ecitabine
##ecium
##eck
##ecl
ECL
##eclamp
##eclampsia
ECM
ECMO
eco
ecological
##ecological
Ecological
ecologically
ecology
econ
Econ
##econd
economic
##economic
Economic
economical
economically
economics
economy
ecosystem
ecosystems
ecotoxic
##ecrosis
ECs
##ECs
ect
##ect
Ect
ECT
##ECT
##ectable
##ectal
##ectant
##ectants
##ectasis
##ected
##ectic
##ectin
##ecting
##ection
##ections
##ectious
##ectiv
##ective
##ectively
##ectiveness
##ectives
##ectivity
##ectomies
##ectomized
##ectomy
ectopic
Ectopic
##ector
##ectors
##ects
##ecu
##ecule
##ecules
##ecum
##ecund
##ecundity
##ecurity
##ecutive
##ecutively
##ecycline
ecz
eczema
ed
##ed
Ed
ED
##ED
##edance
##edd
##EDD
##edded
##edding
##eded
edema
##edema
edent
##edes
edge
##edge
edges
##edi
##ediated
##ediatric
edible
##edic
##edical
##edicated
##edicine
##eding
##edipine
editing
edition
editor
##edle
##edness
##edom
##eds
EDs
##EDs
EDS
EDTA
educ
##educ
Educ
educated
education
Education
educational
Educational
educators
##edullary
ee
##ee
EE
##EE
##eed
EEG
##EEG
##een
##ees
ef
##ef
EF
##EF
eff
##eff
Eff
effect
##effect
Effect
effective
##effective
Effective
effectively
effectiveness
##effectiveness
Effectiveness
effector
effectors
effects
##effects
Effects
efferent
efficac
efficacies
efficacious
efficacy
##efficacy
Efficacy
efficiencies
efficiency
##efficiency
Efficiency
efficient
##efficient
Efficient
efficiently
efflu
effluent
effluents
efflux
effort
efforts
Efforts
effusion
effusions
##efined
##efitinib
eg
##eg
Eg
EG
##EG
EGC
EGCG
EGF
EGFP
##EGFP
eGFR
EGFR
##EGFR
egg
Egg
eggs
Egr
Egypt
Egypti
Egyptian
EH
##EH
EHR
EI
##EI
EIA
eic
eIF
eigen
eight
##eight
Eight
Eighteen
Eighty
##ein
either
ejac
ejection
##ejun
##ek
##EK
##eking
el
##el
El
EL
##EL
##ela
elabor
elaborate
elaborated
elaboration
##elae
elast
##elast
elastase
elastic
##elastic
elasticity
elastin
elastography
elbow
##eld
elder
elderly
Elderly
##elding
ele
##ele
Ele
elec
##elec
Elec
##elecoxib
elect
##elect
Elect
elective
electr
electric
##electric
electrical
Electrical
electrically
electricity
electro
##electro
Electro
electrocardi
electrocataly
electrochem
electrochemical
##electrochemical
Electrochemical
electrode
##electrode
electrodes
##electrodes
electroencephal
electroly
##electroly
electrolyte
##electrolyte
electrolytes
electrom
electromagnetic
electromy
electron
##electron
Electron
electronic
##electronic
Electronic
electronically
electronics
electrons
electrop
electroph
##electroph
Electroph
electrophilic
electrophoresis
electrophoretic
electroporation
electrosp
electrospinning
electrospray
electrospun
electrostatic
##eled
elegans
element
##element
Element
elemental
elementary
elements
##elen
eleph
##eless
elev
elevated
Elevated
elevation
##elevation
elevations
eleven
Eleven
##elf
ELF
##elfare
##eli
##eliac
##elian
elic
##elic
elicit
elicited
eliciting
elicits
##elief
elig
eligibility
eligible
##elihood
elim
eliminate
eliminated
eliminates
eliminating
elimination
##elin
##eline
##elines
##eliness
##eling
ELISA
##ELISA
elite
ell
##ell
##ella
##ellar
##ellate
##ellation
##elle
##ellect
##ellectual
##elled
##ellent
##eller
##elles
##ellig
##ellin
##elling
ellip
##ellosis
##ellow
##ellular
##ellum
##elly
elong
##elong
elongated
elongation
##elph
##els
else
elsewhere
##elt
##elta
##eltamivir
eluc
Eluc
elucid
elucidate
elucidated
elucidating
elucidation
elusive
eluted
##eluting
elution
##elve
##elves
##elvic
##ely
em
##em
Em
EM
##EM
##ema
EMA
##emann
##emat
##ematic
##ematous
emb
##emb
Emb
EMB
Embase
EMBASE
embedded
##embedded
embedding
##ember
##embered
##emble
##embles
embol
embolic
embolism
embolization
##embran
##embrane
embry
Embry
embryo
embryogenesis
embryonic
Embryonic
embryos
##ement
##ements
emerg
##emerg
Emerg
emerge
emerged
emergence
emergencies
emergency
Emergency
emergent
emerges
emerging
Emerging
EMG
##emi
##EMI
##emia
##emias
##emic
##emiconduc
##eminal
emission
##emission
Emission
emissions
emit
emitted
emitting
##emitting
emo
##emographic
##emoral
##emory
emotion
emotional
##emotional
Emotional
emotionally
emotions
emp
##emp
empathy
##empfer
##empferol
emph
emphas
emphasis
emphasize
emphasized
emphasizes
emphasizing
emphys
emphysema
empir
empirical
Empirical
empirically
employ
Employ
employed
employees
employing
employment
employs
##emporal
empower
empowerment
empt
##emptive
empty
emptying
EMR
EMS
EMT
emuls
##emuls
emulsion
##emulsion
emulsions
##emulsions
##emy
en
##en
En
##En
EN
##EN
##ena
enable
enabled
enables
enabling
ENaC
##enafil
##enal
##enalidomide
enamel
##enan
enanti
Enanti
enantiomer
enantiomeric
enantiomers
##enari
enc
##enc
Enc
encaps
##encaps
encapsulated
##encapsulated
encapsulation
##ence
##enced
encephal
##encephal
##encephalic
encephalitis
##encephalon
encephalopathy
##ences
##ench
##enching
##enchymal
##encies
##encing
encl
##encl
##enclature
enco
encode
encoded
##encoded
encodes
encoding
##encoding
encompass
encompasses
encompassing
encounter
encountered
encounters
encour
encourage
encouraged
encouraging
##ency
end
##end
End
##enda
endangered
endarterectomy
##endazole
ende
##ended
endemic
##endemic
##endent
##ender
##enders
##endi
##endicular
##endin
ending
##ending
##endit
##endix
endo
endoc
endocann
endocannabinoid
endocarditis
endocrin
endocrine
##endocrine
endocytic
endocytosis
endoderm
endodontic
endogenous
Endogenous
endogenously
Endom
endomet
Endomet
endometri
endometrial
endometriosis
endometrium
##endon
endonuclease
endoph
endophytic
endoplasmic
endors
endorsed
endoscop
endoscope
endoscopic
Endoscopic
endoscopy
endosomal
endosomes
endosperm
endosym
endot
endothel
endothelial
##endothelial
Endothelial
endothelin
endothelium
endotox
endotoxin
endotracheal
##endous
endovascular
Endovascular
endowed
endpoint
endpoints
##endronate
ends
##ends
endurance
##ene
##ened
##enedi
##enediamine
##enef
##enem
##ener
energe
##energe
energetic
energetically
energetics
energies
energy
##energy
Energy
##eners
##enes
##eness
##enesulf
##enet
##enetic
enfor
enforcement
eng
##eng
Eng
engage
engaged
engagement
engaging
##enge
##enger
##engers
engine
##engine
Engine
engineer
engineered
##engineered
engineering
##engineering
Engineering
Engl
England
English
engraft
engraftment
##ength
##engthen
##engths
##engue
enh
##enh
Enh
enhance
enhanced
##enhanced
Enhanced
enhancement
Enhancement
enhancements
enhancer
enhancers
enhances
enhancing
##enhancing
Enhancing
##eni
##enia
##enib
##enic
enigmatic
##enign
##enin
##ening
enjoy
enl
enlarg
enlarged
enlargement
##enn
##eno
##enoic
##enol
##enone
##enop
##enopausal
##enoptera
##enopus
##enor
enormous
##enorrhea
eNOS
##enosis
enough
enrich
enriched
##enriched
enrichment
enrol
enroll
enrolled
enrollment
ens
##ens
##ensable
##ensated
##ensation
##ense
##ensed
ensemble
ensembles
##enses
##ensi
##ensile
##ensin
##ensing
##ension
##ensis
##ensities
##ensitive
##ensitivity
##ensity
##ensive
##ensor
##ensors
##ensory
ensuing
ensure
ensures
ensuring
##ensus
ent
##ent
Ent
ENT
##ENT
##enta
entails
##ental
entang
entanglement
##entanil
##entanyl
##entary
##entate
##entation
##ented
enter
##enter
Enter
enteral
entered
enteric
##enteric
enterica
entering
entero
Enterobacter
enterococci
Enterococcus
enterocolitis
enters
##enth
enthal
enthalpy
enti
##enti
##entia
##ential
##entially
##entical
##entif
##entific
##entilation
##entin
##ention
##entioned
##entious
entire
entirely
##entist
##entists
entit
entities
entitled
entity
##ently
entom
##enton
##entr
entrain
##entral
entrance
entrap
entrapment
entrapped
##entre
##entric
##entricular
entropy
entry
##entry
##ents
##enum
Env
envelop
envelope
environ
##environ
Environ
environment
##environment
Environment
environmental
Environmental
environmentally
environments
##enyl
##enz
##enza
##enzae
enzym
enzymatic
##enzymatic
Enzymatic
enzymatically
enzyme
##enzyme
Enzyme
enzymes
##enzymes
EO
##EO
EOC
##eor
eosin
Eosin
eosinophil
eosinophilia
eosinophilic
eosinophils
ep
##ep
Ep
EP
##EP
EPA
EPC
EPCs
epend
##eper
Eph
EphA
##epi
EPI
epic
epicardial
epid
##epid
Epid
epidemi
Epidemi
epidemic
epidemics
epidemiologic
Epidemiologic
epidemiological
Epidemiological
epidemiology
Epidemiology
epiderm
epidermal
Epidermal
epidermidis
epidermis
epidid
epididym
epididymal
epididymis
epidural
epig
Epig
epigen
epigene
epigenetic
Epigenetic
epigenetics
epilep
Epilep
epilepsy
Epilepsy
epilept
epileptic
##epileptic
epilepticus
epinephrine
##eping
epiph
epis
episode
##episode
episodes
episodic
epist
epit
##epit
Epit
epitaxial
epithel
epithelia
epithelial
##epithelial
Epithelial
epithelioid
epithelium
epitope
epitopes
EPO
epoxide
epoxy
EPR
##eprazole
##eps
EPS
epsilon
Epstein
##ept
##epti
##eptic
##eptid
##eptidase
##eptide
##eptides
##eptidyl
##eptin
##eptor
##eptors
EQ
equ
##equ
Equ
equal
equally
equation
equations
equatorial
equi
##equi
equilib
equilibria
equilibrium
##equilibrium
equine
equip
equipment
equipped
equity
equivalence
equivalent
equivalents
equivocal
er
##er
Er
##Er
ER
##ER
era
##era
eradic
eradicate
eradication
##eral
##erally
ERalpha
##erals
##erarch
##erate
##erated
##erating
##eration
##erations
##erative
##erator
ErbB
##erc
ERCC
##ercetin
##ercise
ERCP
##ercul
##erculosis
##erculous
##ercury
##ERD
##ere
##erea
##ereb
##erebral
erectile
##erectomy
##ered
##eremia
##eren
##erence
##erences
##erenol
##erent
##erenti
##erential
##erentially
##erentiated
##erentiation
##erents
##erers
##eres
##erex
##ERF
erg
##erg
ERG
##ERG
##erge
##erged
##ergens
##ergic
##ergies
ergonomic
##ergy
##eri
##ERI
##eria
##eriatric
##eric
##eries
##erin
##erine
##ering
Erk
ERK
##ERK
erlotinib
##erm
##ermal
##erman
##ermi
##ermined
##ern
##ero
##erobic
erosion
ERP
ERPs
err
errone
erroneous
error
errors
##ers
##ERS
##ert
##ERT
##ertain
##erts
##erule
erup
eruption
##erv
##ervation
##erve
##erved
##erves
##ervical
##erving
##ervoir
##ery
Ery
eryth
##eryth
Eryth
erythem
erythema
erythemat
erythematosus
erythrocyte
erythrocytes
erythroid
erythromycin
erythrop
erythropoiesis
erythropoietin
es
##es
Es
##Es
ES
##ES
ESA
##esarean
ESBL
esc
Esc
ESC
escal
escalation
escape
ESCC
Escherichia
ESCs
ESD
##ese
ESI
##ESI
##esia
##esides
##esis
##esity
##esium
##esla
esophag
##esophag
esophageal
##esophageal
Esophageal
esophagectomy
esophagitis
esophagus
Espec
especially
Especially
ESR
ESRD
ess
##ess
Ess
##ESS
##essary
##essation
essay
##essel
##essels
essential
Essential
essentially
##ession
##essional
##essor
est
##est
Est
EST
##EST
establ
##establ
Establ
establish
established
##established
establishes
establishing
Establishing
establishment
Establishment
##este
##ested
##esteem
ester
##ester
esterase
##esterase
##estern
##esterone
esters
##esters
##esthe
##esthesia
esthetic
##esthetic
##esti
##estic
##esticular
##estig
estim
##estim
Estim
estimate
estimated
estimates
Estimates
estimating
Estimating
estimation
Estimation
estimations
estimator
estimators
##estin
##estinal
##esting
##estion
##estions
##estis
##estive
estr
##estr
estradiol
##estradiol
estrogen
##estrogen
Estrogen
estrogenic
estrogens
##estrogens
estrous
estrus
##estrus
##ests
estu
estuarine
estuary
et
##et
Et
ET
##ET
eta
##eta
##etal
##etallic
##etan
etanercept
##etary
##etaxel
etc
etching
##ete
##eteen
##etence
##etent
##eter
##eterm
##eters
##etes
eth
##eth
Eth
##ethane
ethanol
##ethanol
Ethanol
ethanolic
##etheless
ether
##ether
ethers
##ethi
Ethi
ethical
ethics
Ethiopia
ethn
ethnic
##ethnic
ethnicity
##ethnicity
##ethoxy
ethyl
##ethyl
##ethylation
ethylene
##ethylene
eti
##eti
##etic
##etics
##eties
##etin
##etine
##eting
etiologic
etiological
etiologies
etiology
##etism
##etit
##etite
##etition
##etitive
##etnam
##eto
##etobacter
EtOH
##etom
##etomidine
etoposide
##etra
##etrexed
##etric
##etron
##etry
##ets
##ETs
ETS
##ett
##ette
##ettes
##etting
##etts
##etu
##etus
##etuximab
ETV
##etwork
##ety
eu
##eu
Eu
##Eu
EU
eug
eukary
eukaryotes
eukaryotic
Eur
Euro
europ
Europ
Europe
European
EUS
eut
euth
euthan
euthanized
##eutic
##eutics
eutroph
ev
##ev
eV
Ev
EV
##EV
evac
evacuation
evade
evalu
##evalu
Evalu
evaluate
evaluated
evaluates
evaluating
Evaluating
evaluation
##evaluation
Evaluation
evaluations
evapor
evaporation
evasion
even
Even
evening
event
Event
events
Events
eventual
eventually
ever
##ever
Ever
everolimus
every
Every
everyday
evid
Evid
evidence
Evidence
evidenced
evidences
evident
evoke
evoked
##evoked
evolution
##evolution
Evolution
evolutionarily
evolutionary
Evolutionary
evolve
evolved
evolves
evolving
EVs
##ew
EW
##ewal
ewes
Ewing
##ewise
##ework
##eworthy
ex
##ex
Ex
##Ex
EX
##EX
exacerb
exacerbate
exacerbated
exacerbates
exacerbation
exacerbations
exact
exactly
exagg
exaggerated
exam
Examin
examination
Examination
examinations
examine
examined
examines
examining
Examining
example
examples
Examples
exc
##exc
Exc
excav
exce
exceed
exceeded
exceeding
exceeds
Excell
excellent
except
Except
exception
exceptional
exceptionally
exceptions
excess
excessive
Excessive
exchang
exchange
##exchange
exchanger
exchanges
excipients
excised
excision
excit
excitability
excitation
##excitation
excitations
excitatory
excited
exciting
exciton
excitotoxicity
excl
exclude
excluded
excluding
exclusion
exclusive
exclusively
excreted
excretion
excur
exec
executed
execution
executive
exem
exempl
exemplified
exer
exerc
exercise
##exercise
Exercise
exercises
exert
exerted
exertion
exerts
exfoli
exhaled
exhaus
exhaust
exhaustion
exhaustive
exhibit
exhibited
exhibiting
exhibits
exist
existed
existence
existing
##existing
Existing
exists
exit
exo
exocrine
exocytosis
exogenous
Exogenous
exome
exon
exons
exosome
exosomes
exotic
exp
##exp
Exp
expand
expanded
expanding
expands
expansion
expansions
expect
expectancy
expectation
expectations
expected
##expected
exped
expendit
expenditure
expenditures
expense
expensive
##expensive
exper
##exper
Exper
experi
##experi
Experi
experience
Experience
experienced
##experienced
experiences
Experiences
experiencing
experim
Experim
experiment
Experiment
experimental
##experimental
Experimental
experimentally
experimentation
experiments
Experiments
expert
Expert
expertise
experts
expiratory
expl
Expl
explain
explained
explaining
explains
explan
explanation
explanations
explanatory
explant
explants
explicit
explicitly
explo
exploit
exploitation
exploited
exploiting
exploits
exploration
exploratory
explore
explored
explores
exploring
Exploring
explosion
explosive
expon
exponent
exponential
exponentially
export
expos
expose
exposed
##exposed
exposing
exposure
##exposure
Exposure
exposures
expres
express
expressed
##expressed
expresses
expressing
##expressing
expression
##expression
Expression
expressions
ext
##ext
Ext
extant
exten
extend
extended
Extended
extending
extends
extension
extensions
extensive
Extensive
extensively
extensor
extent
extern
external
External
externalizing
externally
extinction
extr
extra
Extra
extrac
Extrac
extracellular
Extracellular
extracorporeal
extracranial
extract
Extract
extracted
extracting
extraction
##extraction
Extraction
extracts
extrahepatic
extram
extraord
extraordinary
extrap
extrapol
extrapolated
extrapolation
extravas
extravasation
extrem
extreme
extremely
extremes
extremities
extremity
extrinsic
extrusion
exud
##ey
##eydig
eye
Eye
eyel
eyelid
##eyer
eyes
##ez
EZ
EZH
f
##f
F
##F
##Ḟ
fa
##fa
Fa
FA
##FA
Fab
FABP
fabric
fabricate
fabricated
fabricating
fabrication
Fabrication
Fabry
fac
Fac
face
##face
Face
faced
faces
##faces
facet
facets
facial
##facial
Facial
facil
Facil
facile
facilit
facilitate
facilitated
facilitates
facilitating
facilitation
facilitators
facilities
facility
facing
FACS
fact
##fact
##factant
##faction
factor
##factor
Factor
factorial
##factorial
factors
##factors
Factors
##factory
facts
facult
facultative
faculty
FAD
faecal
faecalis
faeces
faecium
fail
Fail
failed
failing
fails
failure
Failure
failures
fair
fairly
faith
FAK
falc
falciparum
fall
##fall
Fall
falling
falls
##falls
false
fam
FAM
famil
Famil
familial
Familial
familiar
familiarity
families
family
##family
Family
##fan
FAP
far
Far
##farin
farm
farmers
farming
farms
farnes
fas
Fas
FAs
##FAs
FAS
fasc
fasci
fascia
fascic
fasciitis
fascinating
fashion
fast
##fast
Fast
fasted
faster
fastest
fasting
fat
##fat
Fat
fatal
fatality
fate
fates
father
fathers
fatigue
Fatigue
##fatin
fatty
Fatty
fault
fauna
fav
favor
favorable
favorably
favored
favoring
favors
favour
favourable
FB
Fc
##Fc
FC
##FC
FD
##FD
FDA
FDG
##FDG
fe
##fe
Fe
##Fe
FE
##FE
fear
feas
Feas
feasibility
Feasibility
feasible
feat
feather
feature
featured
features
Features
featuring
feb
Feb
febrile
February
fecal
Fecal
feces
##fect
##fected
##fection
fecundity
fed
##fed
Fed
federal
Federal
Federation
feed
##feed
Feed
feedback
##feedback
feeder
feeding
##feeding
Feeding
feeds
feedst
feedstock
feel
feeling
feelings
feet
fel
##feld
feline
fell
fellows
felt
fem
##fem
Fem
female
Female
females
Females
femoral
femoris
femtosecond
femur
fen
##fen
fenes
fentanyl
Fenton
FeO
##FeO
fer
##fer
Fer
##ference
##ferential
##feri
##ferior
ferment
fermentation
fermented
Fermi
##feron
##ferred
ferric
ferritin
ferro
ferroc
ferroelectric
ferromagnetic
ferrous
fertil
##fertil
fertile
fertility
fertilization
fertilized
fertilizer
FES
##fet
fetal
Fetal
fetus
fetuses
FEV
fever
Fever
few
Few
fewer
##ff
FF
##FF
FFA
##ffe
##ffee
FFP
Fg
FG
FGF
##FGF
FGFR
FH
##FH
FI
##FI
fib
##fib
Fib
fiber
##fiber
Fiber
fibers
fibr
fibre
fibres
fibril
fibrill
fibrillar
fibrillary
fibrillation
fibrils
fibrin
fibrinogen
fibrinolysis
fibro
fibrob
fibroblast
Fibroblast
fibroblasts
fibromyalgia
fibronectin
fibrosis
Fibrosis
fibrotic
fibrous
fic
fidelity
field
##field
Field
fields
fif
Fif
fifteen
Fifteen
fifth
fifty
Fifty
fig
Fig
fight
figure
figures
fil
##fil
Fil
filament
##filament
filamentous
filaments
file
files
fill
filled
##filled
filler
filling
film
##film
films
filter
filtered
filtering
filters
filtration
##filtration
fimb
fin
##fin
Fin
final
Final
finally
Finally
financial
find
finding
Finding
findings
Findings
finds
fine
##fine
Fine
finely
fing
finger
##finger
fingerprin
fingerprint
fingerprinting
fingerprints
fingers
finishing
finite
Finite
Finland
Finn
Finnish
Fir
fire
##fire
firing
firm
Firmicutes
first
##first
First
firstly
Firstly
fis
fish
##fish
Fish
FISH
Fisher
fisheries
fishes
fishing
fiss
fission
fist
fistula
fistulas
fit
##fit
FITC
fitness
fits
fitted
fitting
five
##five
Five
fix
##fix
fixation
fixed
##fixed
FK
FKBP
fl
##fl
Fl
FL
##FL
FLA
flag
flagella
flagellar
flame
flank
flanking
flap
flaps
flash
flask
flat
flav
##flav
Flav
flavi
flavin
flavon
flavonoid
flavonoids
flavor
flax
fle
flex
##flex
Flex
flexibility
flexible
Flexible
flexion
flexor
flies
##flies
flight
##flight
flo
floating
flocc
flocks
flood
flooding
floor
flor
Flor
flora
floral
Florida
flour
flow
##flow
Flow
flower
##flower
flowering
flowers
flowing
flows
##floxacin
FLT
flu
##flu
Flu
fluconazole
fluctu
fluctuating
fluctuation
fluctuations
fluence
fluency
fluid
##fluid
Fluid
fluidity
fluids
fluor
##fluor
Fluor
fluores
fluorescein
fluorescence
Fluorescence
fluorescent
Fluorescent
fluorescently
fluoride
fluorinated
fluorine
fluoro
##fluoro
fluorophore
fluorophores
fluoroquin
fluoroquinolone
fluoroscopy
##fluorouracil
fluoxetine
flux
##flux
fluxes
fly
##fly
Fm
FM
##FM
FMD
FMR
fMRI
FN
FNA
fo
Fo
FO
foam
foc
focal
Focal
foci
focus
Focus
focused
##focused
focuses
focusing
foetal
fol
FOL
folate
##folate
fold
##fold
folded
##folded
folding
##folding
folds
foli
##foli
foliar
folic
folk
follic
follicle
follicles
follicular
follow
Follow
followed
following
Following
follows
food
Food
foodborne
foods
foot
##foot
Foot
football
footprint
for
##for
For
FOR
forage
foraging
foramen
force
##force
Force
forced
forces
forcing
##ford
fore
##fore
Fore
forearm
forebrain
forecast
foreign
forensic
fores
forest
Forest
forests
forg
forget
fork
form
##form
Form
formal
formaldehyde
formalin
formalism
formally
##formance
##formans
format
formate
formation
##formation
Formation
##formations
formats
##forme
formed
##formed
former
formerly
formic
##formin
forming
##forming
forms
##forms
formula
Formula
formulas
formulate
formulated
formulation
formulations
##fort
Fort
forth
forty
Forty
forward
##forward
fos
##fos
Fos
##Fos
foss
fossa
fossil
foster
fouling
found
Found
foundation
Foundation
foundations
founder
four
##four
Four
Fourier
Fourteen
fourth
fove
fox
Fox
FOX
##FOX
FoxO
FOXO
Foxp
FoxP
FOXP
##fp
FP
##FP
FQ
fr
##fr
Fr
FR
##FR
fract
Fract
fractal
fraction
Fraction
fractional
fractionated
fractionation
fractions
fracture
Fracture
fractured
fractures
Fractures
frag
Frag
fragile
fragility
fragment
fragmentation
fragmented
fragments
frail
frailty
fram
##fram
Fram
frame
##frame
frames
framework
Framework
frameworks
Fran
France
Francis
FRAP
fre
Fre
free
##free
Free
##Free
freedom
freely
freeze
freezing
French
frequ
Frequ
frequencies
frequency
##frequency
Frequency
frequent
frequently
fresh
Fresh
freshly
freshwater
FRET
Freund
fric
friction
Fried
friend
friendly
##friendly
friends
fringe
frog
frogs
from
##from
From
fron
front
##front
frontal
frontier
fronto
frontotemporal
frozen
fru
fruct
fructose
fruit
fruiting
fruits
frustr
fs
##fs
##Fs
FS
##FS
FSH
FST
##ft
FT
##FT
##fted
##fter
FTIR
FTO
##fts
Fts
fu
##fu
Fu
FU
##FU
fuc
fuel
fuels
Fuk
ful
##ful
Ful
fulf
fulfill
fulfilled
full
Full
fulle
fullerene
fully
##fully
fulminant
##fulness
fum
fumarate
fumig
fumigatus
fun
function
##function
Function
functional
##functional
Functional
functionalities
functionality
functionalized
##functionalized
functionally
functionals
functioning
##functioning
Functioning
functions
##functions
fund
Fund
fundament
fundamental
fundamentally
funded
funding
fundus
fung
Fung
fungal
Fungal
fungi
fungus
fur
##fur
furan
##furan
furn
further
Further
furthermore
Furthermore
fus
Fus
FUS
Fusarium
fused
##fused
fusiform
fusion
##fusion
Fusion
fusions
future
Future
fuzzy
##Fv
FV
##FV
FVIII
FW
FX
FXR
g
##g
G
##G
##ǵ
##Ǵ
##ğ
##ĝ
##Ĝ
##ǧ
##ġ
##ḡ
##Ḡ
ga
##ga
##gA
Ga
##Ga
GA
##GA
GaAs
gab
Gab
GAB
GABA
GABAA
GABAergic
gabapentin
gad
Gad
GAD
gadolinium
Gag
GAG
gain
gained
gaining
gains
gait
gal
##gal
Gal
##Gal
GAL
galact
##galact
galactose
##galactosidase
galectin
gall
##gall
Gall
gallbladder
gallic
gamb
Gamb
gambling
game
games
gamet
gametes
gamm
gamma
##gamma
Gamma
##gan
GaN
##GaN
gang
gangl
gangli
ganglia
ganglion
##gans
gap
##gap
GAP
##GAP
GAPDH
gaps
gar
##gar
gard
##garis
garlic
gas
##gas
Gas
GAS
gaseous
gases
gast
Gast
gastrectomy
gastric
##gastric
Gastric
gastritis
gastro
Gastro
gastrocnemius
gastroenter
gastroenteritis
gastrop
GATA
gate
gated
##gated
gather
gathered
gating
##gative
gauge
Gaussian
gavage
gave
gay
gaze
Gb
GB
##GB
GBM
GBS
GC
##GC
GCs
GCT
Gd
GD
##GD
GDF
GDM
GDNF
GDP
ge
##ge
Ge
##Ge
GE
##GE
##geal
##ged
gefitinib
gel
##gel
Gel
gelatin
gelation
gels
##gels
gem
Gem
GEM
gemcitabine
gen
##gen
Gen
##Gen
GEN
GenBank
##gence
gender
##gender
Gender
genders
gene
##gene
Gene
gener
##gener
genera
general
General
generalist
generalization
generalized
Generalized
generally
Generally
generate
##generate
generated
##generated
generates
generating
##generating
generation
##generation
Generation
##generational
generations
##generative
generator
generic
genes
##genes
Genes
genesis
##genesis
genetic
##genetic
Genetic
genetically
genetics
Genetics
##genic
##genin
genistein
genit
genital
genitalia
##genitor
genitourinary
genome
##genome
Genome
genomes
genomic
##genomic
Genomic
genomics
genotoxic
genotoxicity
genotype
Genotype
genotyped
genotypes
genotypic
genotyping
Genotyping
##gens
gent
##gent
gentamicin
genu
genuine
genus
geochemical
geographic
geographical
geographically
geological
geomet
geometric
geometrical
geometries
geometry
##geon
##geons
Geor
ger
##ger
Ger
GERD
##gered
geriatric
germ
Germ
German
Germany
germinal
germination
germline
germplasm
##gers
##ges
##gesia
gest
##gest
Gest
gestation
gestational
##gesterone
##gestive
get
##get
##gether
getting
GF
##GF
GFAP
GFP
##GFP
GFR
##GFR
##gg
GG
##GG
GGT
Gh
GH
##GH
##ghan
Ghana
GHR
ghrelin
GHz
##gi
Gi
GI
##GI
##gia
##gian
giant
Giant
Giardia
Gib
gibbere
Gibbs
##gic
gig
GII
gil
gill
gills
##gin
ging
##ging
ginger
gingival
gingivalis
gins
ginsen
ginseng
ginsenoside
GIP
girl
girls
GIS
GIST
GISTs
GIT
##gium
give
given
Given
##givers
gives
giving
GJ
GK
gl
##gl
Gl
##Gl
GL
##GL
glab
glabrata
glacial
gland
glands
glandular
Glas
Glasgow
glass
##glass
glasses
glassy
glauc
glaucoma
Glc
GlcNAc
##GlcNAc
Gle
Gleason
glen
glenoid
gli
Gli
GLI
glia
##glia
glial
##glial
glioblastoma
Glioblastoma
glioma
gliomas
Gln
##Gln
glob
##glob
Glob
global
Global
globally
globe
##globin
globular
globulin
##globulin
glomer
glomerul
glomerular
glomeruli
GLP
Glu
##Glu
gluc
##gluc
Gluc
glucagon
glucan
##glucan
glucocortic
glucocorticoid
glucocorticoids
glucone
##glucopyran
##glucopyranoside
##glucopyranosyl
##glucosamine
glucose
##glucose
Glucose
##glucosidase
##glucoside
glucuron
##glucuron
glue
GluN
glut
##glut
Glut
GLUT
glutam
glutamate
##glutamate
glutamatergic
glutamic
##glutaminase
glutamine
##glutamine
##glutamyl
glutathione
Glutathione
glute
gluten
gly
##gly
Gly
##Gly
glyc
##glyc
Glyc
glycaemic
glycan
glycans
##glycans
glycated
glycation
glycemic
glycer
##glycer
glycerol
##glycerol
glycine
##glycine
Glycine
glyco
glycogen
glycol
##glycolic
glycolysis
glycolytic
glycop
glycoprotein
##glycoprotein
glycoproteins
glycos
glycosamin
glycoside
glycosides
glycosyl
glycosylated
glycosylation
##glycosylation
glyphosate
Gm
GM
##GM
GMP
##GMP
##gn
Gn
GN
##GN
GnRH
go
##go
Go
GO
##GO
goal
goals
goat
goats
gob
goes
going
##going
gold
Gold
golden
Golgi
gon
gonad
gonadal
gonadotropin
gonads
gondii
##gone
gonorrh
gonorrhoeae
good
Good
Google
got
gout
##gov
gover
govern
Govern
governance
governed
governing
government
Government
governments
governs
##gow
gp
##gp
GP
##GP
GPa
GPC
GPCR
GPCRs
GPI
GPR
GPs
GPS
GPx
gr
##gr
Gr
GR
##GR
gra
##gra
Gra
grad
##grad
##gradation
grade
##grade
Grade
graded
grades
gradi
gradient
gradients
grading
##grading
gradu
##gradu
gradual
gradually
graduate
##graduate
graduates
graf
graft
##graft
Graft
grafted
grafting
grafts
grain
##grained
grains
gram
##gram
Gram
gran
##gran
Gran
grand
grant
granul
Granul
granular
granulation
granule
granules
granulocyte
granulocytes
granuloma
granulomas
granulomatous
granulosa
grap
grape
grapev
graph
##graph
Graph
graphene
##graphene
Graphene
graphical
graphite
graphs
##graphy
grasp
grasping
grass
##grass
grasses
grassland
grating
gratings
Graves
##gravir
gravis
gravit
gravity
##gravity
gray
grazing
gre
Gre
great
Great
greater
Greater
greatest
greatly
##gree
Greece
Greek
green
##green
Green
greenhouse
##gren
##gression
grew
grey
grid
grip
gro
Gro
groove
gross
Gross
ground
##ground
Ground
##GROUND
grounded
grounds
groundwater
group
##group
Group
grouped
grouping
groups
##groups
Groups
grow
growing
##growing
Growing
grown
##grown
grows
growth
##growth
Growth
GRP
##gs
##Gs
GS
##GS
GSH
GSK
GST
GSTM
GT
##GT
GTP
##GTP
GTPase
GTPases
gu
##gu
Gu
##Gu
GU
guan
##guan
Guang
guanine
guanosine
guarant
guarantee
##gue
guest
##guest
guid
Guid
guidance
guide
guided
##guided
guideline
guidelines
Guidelines
guides
guiding
Guill
##guinal
guinea
Guinea
##gulated
##gulation
##gulatory
Gulf
gum
gun
##gun
##gus
##gust
gut
##gut
Gut
GV
##GV
GVHD
##GVHD
GW
GWAS
gy
Gy
##Gy
gyn
Gyn
gynaec
gynec
Gynec
gynecologic
gynecological
gyr
gyrus
h
##h
H
##H
##ĥ
##Ĥ
##Ḣ
##ħ
##ḥ
##Ḥ
ha
##ha
Ha
HA
##HA
HAART
hab
##hab
Hab
##habdi
##habditis
##habil
##habilitation
habit
habitat
habitats
habits
habitual
habituation
HaCaT
had
haem
##haem
Haem
haemat
haematological
haematopoietic
haemodialysis
haemodynamic
haemoglobin
##haemolyticus
haemophilia
Haemophilus
haemorrh
haemorrhage
haemorrhagic
##hai
hair
Hair
hairpin
hairy
hal
##hal
Hal
##haled
half
##half
Half
halide
halides
hall
Hall
hallmark
hallmarks
halluc
hallucinations
halo
halogen
##halogen
haloperidol
##halose
ham
##ham
hamart
Hamilton
Hamiltonian
hamp
hamper
hampered
hams
hamster
hamsters
##han
Han
##hanced
hand
##hand
Hand
##handed
handle
handling
hands
##hang
##hans
HAP
hapl
Hapl
haploid
haplotype
haplotypes
happ
happens
happiness
happy
##haps
hapt
haptic
har
##har
Har
harb
harbor
harbored
harboring
harbors
hard
##hard
Hard
hardly
hardness
hardware
harm
##harm
harmful
harmon
harmonic
##harmonic
harms
harness
harsh
Hart
harv
##harv
harvest
harvested
harvesting
##harvesting
has
##has
HAS
HAT
hatch
hatching
##haus
have
##havi
having
Having
Haw
Hawai
hay
haz
hazard
hazardous
hazards
Hb
##Hb
HB
##HB
HbA
HBe
HBeAg
HBs
HBsAg
HBV
HC
##HC
HCA
HCC
hCG
HCl
HCM
HCMV
HCN
HCO
HCT
HCV
##HCV
Hcy
HD
##HD
HDAC
HDACs
HDL
##HDL
he
##he
##hE
He
##He
HE
##HE
##hea
head
##head
Head
headache
headaches
heads
headspace
heal
##heal
healed
healing
##healing
health
##health
Health
##Health
healthcare
Healthcare
healthy
##healthy
Healthy
Hear
hearing
Hearing
heart
Heart
hearts
##heast
##heastern
heat
##heat
Heat
heated
heating
heavi
heavier
heavily
heavy
Heavy
hed
##hed
hedge
Hedge
hedgehog
Hedgehog
##hedra
##hedral
heel
heifers
height
heightened
heights
##heimer
HEK
hel
##hel
Hel
HeLa
held
##held
##heless
##helial
helic
##helic
Helic
helical
##helical
helicase
helices
Helicobacter
helium
##helium
helix
##helix
##hell
helmin
##helmin
helminth
help
helped
helper
helpful
helping
helps
hem
##hem
Hem
hemagglut
hemagglutinin
hemangi
hemangioma
hemat
##hemat
Hemat
##hematic
##hematical
##hematics
hematocrit
hematologic
hematological
hematoma
hematopoiesis
hematopoietic
Hematopoietic
hematoxylin
hematuria
heme
##heme
hemi
hemic
##hemical
hemicell
hemip
Hemip
hemiple
Hemiptera
hemisp
##hemisp
hemisphere
hemispheres
hemispheric
##hemispheric
hemodialysis
hemodynamic
hemodynamics
hemoglobin
##hemoglobin
hemolymph
hemolysis
hemolytic
hemophilia
hemorrh
hemorrhage
hemorrhagic
hemostasis
hemostatic
hen
##hen
Hen
hence
Hence
##hene
##henium
##henne
##henol
##henolate
##henous
hens
##hentic
##henyl
hep
##hep
Hep
hepar
heparan
heparin
hepat
Hepat
hepatectomy
hepatic
##hepatic
Hepatic
hepatitis
##hepatitis
Hepatitis
hepatocellular
Hepatocellular
hepatocyte
hepatocytes
hepatoma
hepatotoxicity
hepcidin
HepG
##hepsin
hept
##hept
her
##her
Her
HER
##HER
##herapy
herb
herbal
herbicide
herbicides
herbiv
herbivore
herbivores
herbivory
herbs
herd
herds
here
##here
Here
hered
##hered
Hered
hereditary
Hereditary
herein
Herein
##herence
##herent
##heres
##heresis
hERG
##heric
##herical
##herichia
##heries
##herin
##hering
heritability
heritable
herm
##hern
herni
hernia
hernias
herniation
heroin
herpes
Herpes
herpesvirus
##herry
##hers
##hertz
hes
##hes
hES
Hes
HES
hESC
hESCs
##heses
##hesi
##hesia
##hesin
##hesion
##hesis
##hesive
##hesized
##hest
##hesus
##het
##hetamine
heter
##heter
Heter
hetero
heterochromatin
heterocyclic
##heterocyclic
heterod
heterodimer
heterogene
heterogeneity
heterogeneous
heterojunction
heterologous
heteros
heterosexual
heterot
heterotopic
heterotrophic
heterozyg
heterozygosity
heterozygous
##heters
##hetic
##hetics
heur
heuristic
HEV
hex
##hex
Hex
hexa
##hexa
hexagonal
hexane
##hexane
##hexidine
##hexyl
Hf
HF
##HF
HFD
Hg
##Hg
HG
HGF
Hh
HH
HHV
hi
##hi
Hi
HI
##HI
##hia
##hib
hibern
##hibit
##hibition
hidden
##hie
Hier
hierarch
Hierarch
hierarchical
Hierarchical
hierarchy
HIF
##hift
hig
Hig
high
##high
High
higher
Higher
highest
highl
highlight
highlighted
highlighting
highlights
highly
Highly
hilar
##hile
Hill
him
hind
hinder
hindered
hindlimb
##hing
hinge
##hion
##hionine
hip
##hip
Hip
HIP
Hipp
Hippo
hippocamp
hippocampal
##hippocampal
Hippocampal
hippocampus
hips
##hips
his
##his
His
##His
Hisp
Hispanic
##Hispanic
Hispanics
hist
##hist
Hist
histamine
histi
histidine
histologic
histological
Histological
histologically
histology
histomorph
histone
Histone
histones
histopathologic
histopathology
histor
Histor
historic
historical
historically
Historically
histories
history
##history
History
hit
HIT
hitherto
hits
HIV
##HIV
HK
##hl
HL
##HL
HLA
##HLA
##HLH
HM
HMG
HMGB
hMSCs
##hn
HN
##HN
HNF
HNO
hnR
hnRNP
HNS
HNSCC
ho
##ho
Ho
HO
##HO
hoc
Hodgkin
##Hodgkin
##HODS
##hog
hol
##hol
Hol
hold
##hold
##holder
##holders
holding
holds
##holds
hole
##hole
holes
holistic
hollow
holo
holog
hologram
holographic
Holstein
hom
##hom
Hom
HOM
HOMA
home
##home
Home
homeless
homeobox
homeostasis
homeostatic
homes
homic
homing
homo
HOMO
homocysteine
homod
homodimer
homogen
homogenates
homogeneity
homogeneous
homogenous
homolog
homologous
##homologous
homologs
homologue
homologues
homology
homozyg
homozygous
hon
hone
honey
honeybe
Hong
##hood
hook
hop
##hop
Hop
hope
hopping
hor
Hor
##horacic
horiz
Horiz
horizon
horizontal
horm
hormonal
hormone
Hormone
hormones
horn
hors
horse
horses
##hort
hos
hosp
Hosp
hospice
hospital
##hospital
Hospital
hospitalization
hospitalized
hospitals
Hospitals
host
##host
Host
hosts
hot
##hot
Hot
hotsp
hotspots
##hou
hour
##hour
hours
hous
house
##house
House
housed
household
households
housekeeping
houses
housing
how
How
however
However
Hox
HOX
Hp
HP
##HP
HPA
HPC
HPLC
##HPLC
HPS
HPV
##HPV
hr
##hr
##hR
HR
##HR
##hrelin
HRP
HRQ
HRQoL
HRQOL
##hRs
HRT
HRV
hs
Hs
##Hs
HS
##HS
hsa
HSA
HSC
HSCs
HSCT
##HSCT
HSD
##HSD
HSF
hsp
Hsp
##Hsp
HSP
HSV
hT
HT
##HT
hTERT
HTLV
HTS
htt
##HTT
http
##hu
Hu
HU
hub
huge
hum
##hum
Hum
human
##human
Human
humanized
humans
Humans
humer
humeral
humerus
humic
humid
humidity
humor
humoral
hundred
hundreds
hung
Hung
hunting
Hunting
Huntington
hur
hus
husband
HUVEC
HUVECs
HV
##HV
HW
hy
##hy
Hy
##Hy
HY
##HY
hyal
Hyal
hyaluron
hyaluronan
hyaluronic
hybrid
##hybrid
Hybrid
hybridization
hybrids
hyd
##hyd
Hyd
hydatid
hydr
hydra
hydrate
hydrated
hydration
##hydration
hydraulic
hydraz
##hydraz
hydride
hydro
##hydro
Hydro
hydrocarb
hydrocarbon
hydrocarbons
hydrocephalus
hydrochlor
hydrochloride
hydrodynamic
hydrogel
hydrogels
hydrogen
##hydrogen
Hydrogen
hydrogenation
hydrolase
hydroly
hydrolys
hydrolysate
hydrolysates
hydrolysis
hydrolytic
hydrolyzed
hydroper
hydroph
##hydroph
hydrophilic
hydrophilicity
hydrophob
hydrophobic
##hydrophobic
hydrophobicity
##hydropy
hydrostatic
hydrothermal
hydrox
##hydrox
hydroxide
hydroxy
##hydroxy
hydroxyapatite
##hydroxybutyrate
hydroxyl
##hydroxyl
hydroxylase
##hydroxylase
hydroxylation
hydroxyp
##hydroxyp
##hydroxyphenyl
##hydroxyvitamin
hygi
hygiene
Hym
Hymenoptera
##hynchus
hyp
##hyp
Hyp
hyper
##hyper
Hyper
hyperactivity
##hyperactivity
hyperal
hyperalgesia
hyperb
hyperbaric
hypercal
hypercalcemia
hypercap
hypere
hyperex
hypergly
hyperglyc
hyperglycemia
hyperinsulin
hyperlipidemia
hyperoxia
hyperplasia
hyperpolar
hypersensitive
hyperspectral
hypertension
Hypertension
hypertensive
hyperth
hyperther
hyperthermia
hyperthyroidism
hypertonic
hypertroph
hypertrophic
hypertrophy
hyperuric
hyphae
hyphal
hypn
hypo
hypoc
hypocal
hypochlor
hypof
hypog
hypogly
hypoglyc
hypoglycemia
hypoglycemic
hypogonad
hypogonadism
hyponat
hyponatremia
hypop
hypoperfusion
hypoplasia
hypot
Hypot
hypotension
hypoth
hypothal
hypothalamic
hypothalamus
hypothe
hypother
hypothermia
hypotheses
hypothesis
hypothesised
hypothesize
hypothesized
hypothetical
hypothyroidism
hypov
hypox
hypoxia
Hypoxia
hypoxic
hyst
hyster
hysterectomy
hysteresis
##hyth
##hythm
##hythmia
##hythmic
Hz
##Hz
i
##i
I
##I
##í
##Í
##ì
##Ì
##ĭ
##Ĭ
##î
##Î
##ǐ
##ï
##Ï
##ĩ
##Ĩ
##į
##ī
##Ī
##ı
##İ
##ia
IA
##IA
IAA
##IAA
##iable
##iaceae
##iae
##ial
##ially
##ials
##ialysis
##ian
##iana
##iance
##iances
##iang
##ians
##iant
IAP
##IAP
##ias
##iasis
##iate
##iated
##iatic
##iation
##iative
iatrogenic
IAV
##iax
##iaxial
##iaz
##iazep
ib
##ib
Ib
IB
##IB
##ibacter
##ibb
##ibbere
##ibbons
IBD
##ibe
##iber
Iber
##ibern
##ibility
##ibizumab
##ible
##ibly
##ibr
##ibration
##ibrill
##ibrillar
##ibrillation
##ibrils
##ibrotic
IBS
ibuprofen
ic
##ic
IC
##IC
##ica
ICA
##icac
##icacy
##ical
##ically
##icals
ICAM
##ican
##icans
##icate
##ication
##ications
ICC
ICD
ice
##ice
##iceal
##icep
##iceps
##ices
ICF
ICG
##ich
ICH
##ici
##icial
##icially
##ician
##icians
##icidal
##icide
##icides
##iciencies
##iciency
##icient
##iciently
##icients
##icile
##icillin
##icin
##icine
##icion
##icious
##icit
##icity
##ick
##icked
##ickel
##icketts
##icking
##ickness
##icl
##icle
##icles
##ico
##icochemical
##icol
##icola
##icon
ICP
ICR
##icrobial
##ics
ICS
ICSI
##ict
ICT
##ictal
ICU
##icular
##icum
##icus
##icylic
id
##id
Id
ID
##ID
##ida
##idae
##idal
##idase
##idases
##idate
##idated
##idating
##idation
##idazole
##idden
ide
##ide
Ide
idea
##idea
ideal
ideally
ideas
ideation
##ided
##idel
##idelity
##iden
##idence
##idences
##idene
##ident
##idental
##identate
identi
identical
identif
##identif
Identif
identifiable
identification
Identification
identified
##identified
identifies
identify
identifying
Identifying
identities
identity
##idents
##ider
##iders
##ides
##idespread
IDH
idi
##idi
Idi
##idia
##idial
##idian
##idic
##idics
##idin
##idine
##idines
##iding
##idinium
##idins
idiopathic
Idiopathic
##idirectional
##idis
##idity
##idium
##idne
##idney
##ido
IDO
##idol
##idomide
##idone
##idopsis
##ids
##idum
##idus
ie
##ie
IE
##ied
##ief
##iel
##ield
##ielding
##iella
##iels
##ien
##ience
##iens
##iensis
##ient
##ients
##ier
##iers
##ies
##iesis
##iet
##ieties
##iety
if
##if
If
IF
##IF
##ife
##ifentanil
##ifer
##ifera
##iferous
##ifers
##ifery
##ifest
##iff
##ifferentiated
##ifferentiation
##ifiable
##ific
##ifically
##ificant
##ification
##ifications
##ified
##ifier
##ifiers
##ifies
##ifl
##iflex
##iflo
##iflor
##iflora
##iflozin
##ifluor
IFN
##IFN
##ifolia
##iform
##iformes
##iformis
##iforn
##ifornia
##ifos
##ift
##ifting
##ifug
##ify
##ifying
##ig
Ig
##Ig
IG
##IG
IgA
##igan
##igare
##igarette
##igatran
IgE
##igen
##igenes
##igenic
##igenin
##igenous
##iger
IGF
##IGF
IGFBP
IgG
##IgG
##igh
##ighbor
##ighed
##ight
##ighted
##ighteen
##ighter
##ights
##igilance
##igin
##iginal
##iglitazone
##igm
IgM
##igma
##igmatic
##igmoid
##igms
ign
##ign
##IGN
##ignant
##igned
##ignificant
##ignment
ignored
##igration
##igs
##igu
##iguous
IH
IHC
ii
##ii
II
##II
##IIa
IIA
IIb
iii
III
##III
##ij
##ijing
##ik
IK
##IK
##ika
##ike
IKK
##IKV
il
##il
Il
IL
##IL
##ila
##ilance
##ilane
##ilar
##ilateral
##ilation
ILC
##ild
ILD
##ildenafil
##ilding
ile
##ile
Ile
ileal
##iled
##ilep
##ilept
##ileptic
##iles
ileum
##iley
##ili
##ilia
iliac
##iliac
##iliar
##iliary
##ilib
##ilibrium
##ilic
##ilical
##ilicity
##iliensis
##ilin
##iline
##iling
##ilipp
##ilis
##ilities
##ility
##ilization
ill
##ill
Ill
##illa
##illance
##illar
##illary
ille
##ille
##illectomy
##illed
illegal
##illes
##illi
illicit
##illin
##illing
##illium
illness
Illness
illnesses
##illofacial
##illosis
##ills
illumin
Illumina
illuminate
illuminated
illumination
##illus
illusion
illustr
illustrate
illustrated
illustrates
illustrating
##ils
ILs
##ILs
##ilson
##ilst
##ilt
##iltr
##iltration
##iluminescence
##ilus
##ilution
##ily
im
##im
Im
##Im
IM
##IM
##ima
##imab
imag
image
##image
Image
imaged
imagery
images
Images
imaging
##imaging
Imaging
##imal
##imals
##imate
imatinib
##imb
imbal
imbalance
imbalances
##imbic
##ime
##imed
##imen
##imens
##imension
##imensional
##iment
##imental
##imentary
##imentin
##iments
##imer
##imeric
##imers
##imes
##imeter
##imeters
##imethyl
##imetic
##imetics
##imetric
##imetry
imid
##imid
##imidazol
imidazole
##imidazole
imidazolium
##imidazolium
##imide
##imil
##imilar
##iminary
imine
##imine
imip
imm
##imm
Imm
immature
immediate
Immediate
immediately
immer
immers
immersed
immersion
immig
immigrant
immigrants
immigration
immobil
immobility
immobilization
immobilized
immortal
immortalized
immun
##immun
Immun
immune
##immune
Immune
immunity
##immunity
immunization
Immunization
immunized
immuno
immunoassay
immunoassays
immunobl
immunoblotting
immunocomp
immunocompetent
immunocyt
immunod
immunodef
immunogenic
immunogenicity
immunoglobulin
immunoglobulins
immunohist
Immunohist
immunologic
immunological
immunology
immunomod
immunophen
immunore
immunoreactive
immunos
immunosensor
immunosorbent
immunostaining
immunosupp
immunosuppress
immunotherapy
##imod
##imolar
##imoto
##imotor
imp
##imp
Imp
IMP
impact
Impact
impacted
impacting
impacts
impair
Impair
impaired
##impaired
Impaired
impairing
impairment
Impairment
impairments
impairs
imped
impedance
impede
imper
imperative
imperfect
imping
impingement
impl
implant
##implant
Implant
implantable
implantation
##implantation
implanted
implants
Imple
implement
implementation
Implementation
implemented
implementing
implicate
implicated
implicates
implicating
implication
implications
Implications
implicit
implied
implies
imply
implying
import
Import
importance
Importance
important
Important
importantly
Importantly
imported
impos
impose
imposed
impossible
impregn
impression
impressive
imprin
imprinted
imprinting
impro
Impro
improper
improve
Improve
improved
Improved
improvement
Improvement
improvements
Improvements
improves
improving
Improving
impul
impulse
impulsive
impulsivity
impurities
impurity
imputation
IMRT
IMS
IMT
##imumab
##imurium
##imus
in
##in
In
##In
IN
##IN
##ina
inability
inacc
inaccurate
inactivate
inactivated
inactivating
inactivation
Inactivation
inactive
inactivity
inadequ
inadequate
##inae
##inal
##inally
##inance
##inant
##inants
inappropriate
##inar
##inarily
##inary
##inase
##inate
##inated
##inately
##inates
##inating
##ination
##inations
##inator
##inatorial
##inators
##inavir
inbred
inbreeding
inc
##inc
Inc
incap
incarcer
##ince
incen
incentive
incentives
##inces
##incial
incidence
Incidence
incidences
incident
incidental
incidentally
incidents
incis
incision
##incision
incisor
incisors
incl
inclination
includ
include
included
includes
including
inclusion
Inclusion
inclusions
inclusive
inco
incoherent
incom
income
##income
incoming
incomp
incompatible
incomple
incomplete
incompletely
incon
inconclusive
incongru
incongruent
incons
inconsist
inconsistencies
inconsistent
incontin
incontinence
incorpor
Incorpor
incorporate
incorporated
incorporates
incorporating
incorporation
Incorporation
incorrect
incre
##incre
Incre
increase
Increase
increased
Increased
increases
Increases
increasing
Increasing
increasingly
increment
incremental
##inct
##incter
##inction
incub
incubated
incubation
##incubation
incurable
ind
##ind
Ind
IND
indeed
Indeed
independence
independent
##independent
Independent
independently
##inder
indeterm
indeterminate
index
##index
Index
indexed
indexes
indi
##indi
Indi
India
Indian
indic
##indic
Indic
indica
indicate
indicated
indicates
indicating
indication
indications
indicative
indicator
indicators
indices
indigenous
Indigenous
##inding
indirect
indirectly
indisp
indispensable
indium
individ
individual
##individual
Individual
individualized
individually
individuals
Individuals
indol
indole
##indole
indolent
indomethacin
Indones
Indonesia
indoor
induc
induce
induced
##induced
Induced
##Induced
inducer
inducers
induces
inducible
##inducible
inducing
##inducing
induction
Induction
inductive
inductively
indust
industrial
industrialized
industries
industry
##ine
##INE
##inea
##ineal
##ined
ineffective
inefficient
##inel
##inely
##inement
##inephrine
inequ
inequalities
inequality
iner
##iner
##ineral
##ineralization
##inergic
inert
inertial
##inery
##ines
##inese
##iness
##inetic
##inetics
##ineural
##ineurin
inev
inevitable
inexpensive
inf
##inf
Inf
##Inf
INF
##INF
infancy
infant
Infant
infantile
infants
Infants
infarc
infarct
infarction
Infarction
infect
infected
##infected
infecting
infection
##infection
Infection
infections
##infections
Infections
infectious
##infectious
Infectious
infective
infectivity
infects
infer
inference
inferences
inferior
##inferior
inferred
infertile
infertility
infest
infestation
infested
infil
infiltr
##infiltr
infiltrate
infiltrated
infiltrates
infiltrating
##infiltrating
infiltration
infinite
infl
inflamed
inflamm
##inflamm
Inflamm
inflammasome
inflammation
##inflammation
Inflammation
inflammatory
##inflammatory
Inflammatory
inflation
infliximab
inflow
influ
Influ
influence
Influence
influenced
influences
influencing
influent
influential
influenza
Influenza
influenzae
influx
##INFO
##infor
inform
##inform
Inform
informal
informatics
information
Information
informative
informed
informing
infra
infrared
##infrared
Infrared
infras
infrastructure
infrequ
infrequent
infrequently
infused
infusion
infusions
ing
##ing
##ING
##inge
##ingent
##inger
ingested
ingestion
##ingle
##ingly
ingredi
ingredient
ingredients
##ings
##ingual
inguinal
inhab
inhabit
inhabitants
inhabiting
inhal
inhalation
inhaled
inher
inherent
inherently
inheritance
inherited
inhib
inhibit
##inhibit
Inhibit
inhibited
##inhibited
inhibiting
inhibition
##inhibition
Inhibition
inhibitor
##inhibitor
Inhibitor
inhibitors
Inhibitors
inhibitory
##inhibitory
Inhibitory
inhibits
inhom
inhomogeneous
##ini
##inia
##inic
##inical
##inin
##inine
##ining
##inins
##inis
##inite
initi
##initi
Initi
initial
Initial
initially
Initially
initiate
initiated
##initiated
initiates
initiating
##initiating
initiation
initiative
Initiative
initiatives
initiator
##inities
initio
##inity
##inium
inj
##inj
Inj
inject
injectable
injected
##injected
injecting
injection
##injection
Injection
injections
injured
##injured
injuries
Injuries
injury
##injury
Injury
ink
##ink
##inkage
##inking
iNKT
inlet
inn
##inn
Inn
innate
Innate
##inned
inner
innerv
innervation
##inning
##innitus
innov
Innov
innovation
innovations
innovative
##ino
inoc
##inoc
inoculated
inoculation
inoculum
##inoic
##inol
##inone
inorganic
##inorganic
##inos
iNOS
##inosa
##inosinusitis
inositol
##inositol
##inotecan
##inous
inpatient
inpatients
input
inputs
##inqu
inquiry
INR
ins
##ins
Ins
##Ins
INS
insect
insectic
insecticidal
insecticide
insecticides
insects
insecurity
insem
insemination
insensitive
insensitivity
inser
insert
inserted
insertion
insertions
##insic
##insically
inside
insight
insights
Insights
insignificant
insoluble
insomnia
##inson
insp
inspection
inspiratory
inspired
##inspired
inst
instability
install
installed
instance
instances
instant
instantaneous
instar
instead
Instead
instillation
instit
Instit
institute
Institute
Institutes
institution
##institution
institutional
##institutional
institutions
instr
Instr
instruc
instruct
instructed
instruction
instructions
instrument
instrumental
instrumentation
instrumented
instruments
insuff
insufficiency
insufficient
insula
insular
insulating
insulator
insulin
##insulin
Insulin
insult
insults
insurance
Insurance
int
##int
Int
INT
intact
intake
intakes
inte
Inte
##inted
integ
##integ
Integ
integr
Integra
integral
integrase
integrate
integrated
Integrated
integrates
integrating
Integrating
integration
Integration
integrative
integrin
##integrin
integrins
integrity
intellectual
intellig
intelligence
intelligent
inten
##inten
intended
##intended
intens
intense
intensi
intensification
intensified
intensities
intensity
##intensity
intensive
##intensive
Intensive
intensively
intent
intention
intentional
##intentional
intentions
inter
##inter
Inter
interact
interacted
interacting
##interacting
interaction
Interaction
interactions
Interactions
interactive
interacts
intercal
intercalation
intercellular
interchange
interconn
interconnected
intercourse
interes
interest
interested
interesting
interestingly
Interestingly
interests
interf
interface
interfaces
interfacial
interfer
interfere
interference
interferences
interferes
interfering
interferometer
interferometry
interferon
##interferon
Interferon
intergenic
interim
interindividual
##intering
interior
interl
interlayer
interleukin
Interleukin
Interm
intermedi
intermediate
intermediates
intermit
intermittent
intermolecular
intern
Intern
internal
Internal
internalization
internalized
internalizing
internally
international
International
internationally
interne
internet
Internet
interneurons
interobserver
interpersonal
interphase
interplay
interpol
interpolation
interpre
##interpre
Interpre
interpret
interpretation
interpretations
interpreted
interpreting
interquartile
interrog
interrup
interrupted
interruption
inters
intersection
interspecies
interspecific
interstitial
interval
intervals
interven
intervening
intervention
##intervention
Intervention
interventional
interventions
Interventions
intervertebral
interview
Interview
interviewed
interviews
intest
intestinal
##intestinal
Intestinal
intestine
intestines
intim
intima
intimal
intimate
intimately
##inting
into
intolerance
intoxication
intr
Intr
intra
Intra
intrac
Intrac
intracellular
Intracellular
intracereb
intracerebral
intracor
intracranial
Intracranial
intract
intractable
intraepithelial
intrahepatic
intral
intram
intramedullary
intramolecular
intramuscular
intran
intranasal
intraocular
intraoperative
Intraoperative
intrap
intraperitoneal
intras
intraspecific
intrat
intrathecal
intratumoral
intrauterine
intravascular
intravenous
Intravenous
intravenously
intravitreal
intric
intricate
intrigu
Intrigu
intriguing
Intriguingly
intrinsic
intrinsically
intro
Intro
introduce
introduced
introduces
introducing
introduction
Introduction
introgression
intron
intronic
introns
##ints
intu
intubation
intuitive
inulin
##inum
##inus
##inusitis
inv
##inv
Inv
invad
invade
invaded
invading
invaluable
invari
invariably
invariance
invariant
invas
##invas
invasion
invasive
##invasive
Invasive
##invasively
invasiveness
invent
Invent
inventory
Inventory
inver
inverse
inversely
inversion
inverteb
invertebrate
invertebrates
inverted
invest
investig
Investig
investigate
investigated
investigates
investigating
Investigating
investigation
Investigation
investigational
investigations
Investigations
investigators
investment
invis
invited
invol
Invol
involuntary
involve
involved
involvement
Involvement
involves
involving
inward
##inyl
##io
##iO
IO
##IO
iod
##iod
##iodarone
##iode
iodide
iodine
##iodine
##ioid
##ioides
IOL
##ioma
##iomas
##iomy
ion
##ion
Ion
##ION
##ional
##ionate
##ione
##iones
ionic
##ionic
ionization
##ionization
ionizing
ions
##ions
##IONS
IOP
##ior
##iors
##iosis
##iosity
##iotic
##iotics
##ious
##iovenous
ip
##ip
IP
##IP
IPA
##ipal
##ipar
##iparous
##iparum
IPC
IPD
##ipe
##iper
IPF
##iph
##iphatic
##iphenyl
##ipher
##ipheral
##ipid
##ipient
##ipients
##ipin
##ipine
##ipit
##ipital
##ipitation
##ipl
##iplatin
##iple
##iples
##iplinary
##ipolar
##ipot
##ipping
##iprazole
##ipro
##iprofloxacin
ips
##ips
iPS
IPS
iPSC
iPSCs
ipsilateral
##ipt
IPV
##IPY
IQ
IQR
##iqu
ir
##ir
Ir
IR
##IR
##ira
IRA
##irable
##iral
##iram
Iran
Iranian
Iraq
##iration
##iratory
##irc
##ircon
##ird
##irds
##ire
IRE
##ired
##irel
Ireland
##ireless
##ires
IRF
IRI
irid
iridium
##irin
##iring
irinotecan
iris
Irish
##irium
##irl
##irm
##irmed
##iro
iron
##iron
Iron
##irosis
irr
irradi
irradiance
irradiated
##irradiated
irradiation
##irradiation
irregular
irrelevant
irrespective
irrever
irreversible
##irrh
irrig
irrigation
irrit
irritable
irritation
##irs
IRS
##irsch
##irst
##irt
##irteen
##irth
##irty
##irubin
##irus
is
##is
Is
##Is
IS
##IS
##isation
##isations
##isc
Isc
##iscal
isch
ischaemia
ischaemic
ischem
##ischem
Ischem
ischemia
Ischemia
ischemic
##ischemic
Ischemic
##isconsin
##iscus
##ise
##isecond
##ised
##isely
##isen
##ises
##isexual
##ish
##ished
##isher
##ishes
##ishing
##ishman
##ishment
##isic
##isin
##ising
##ision
##isions
##isis
##isk
island
Island
islands
Islands
islet
islets
##ism
##isms
##ismus
##ismuth
iso
##iso
Iso
ISO
isoc
##isode
isoelectric
isoflav
isoflavones
isoflurane
isoform
isoforms
isogenic
isol
##isol
Isol
isolate
isolated
Isolated
isolates
Isolates
isolating
isolation
Isolation
##isole
##isome
isomer
isomerase
isomerization
isomers
isometric
##ison
isoniazid
##isons
isop
isopren
##isopropyl
isoproterenol
isos
isot
isother
isotherm
isothermal
isotherms
isothi
isothiocyanate
isotope
isotopes
isotopic
isotropic
##isp
##ispanic
##isper
##isperidone
Isra
Israel
iss
##iss
ISS
##isser
##issible
##issimus
##ission
##issive
##issociation
##isson
issue
Issue
issued
issues
##ist
##IST
##istan
##istance
##istant
##istar
##isted
##istein
##istence
##istent
##ister
##istered
##istering
##isters
##istic
##istics
##istin
##isting
##istingu
##istinguish
##istinguishable
##istocene
##istr
##istration
##istrative
##istrib
##istribution
##istries
##istry
##ists
##isure
##isy
it
##it
It
IT
##IT
##ita
##itability
##itabine
##itable
##itably
##ital
Ital
Italian
##italopram
##itals
Italy
##itamin
##itan
##itance
##itarian
##itary
##itate
##itated
##itating
##itation
##itations
##itative
##itatively
ITC
##ITC
itch
##itch
##ite
##iteal
##itect
##ited
##itely
item
##item
items
##iter
iterative
##iteria
##iterp
##iterpen
##iterpene
##iterpenes
##iterpenoid
##iterpenoids
##iterranean
##ites
##ith
##ithelial
##ither
##itherto
##ithi
##ithin
##ithine
##ithm
##ithmetic
##ithmic
##ithromycin
##iti
##itic
##itidis
##ities
##itig
##itiligo
##itin
##iting
##itinib
##ition
##itions
##itis
##itism
##itive
##itively
##itives
##itivity
##itized
##itness
ITO
##itol
##iton
##itone
##itoneal
##itoneum
##itonitis
##itons
##itor
##itoring
##itors
##itory
##itosan
ITP
##itr
itraconazole
##itrate
##itrite
##itro
##itron
its
##its
Its
ITS
itself
##itt
##itter
##itting
##itu
##itual
##ituation
##itud
##itude
##itudes
##itudinal
##itudinally
##ituitary
##itum
##ituric
##itus
##ituximab
##ity
##ITY
##itz
IU
IUGR
##ium
##ius
iv
##iv
IV
##IV
##iva
##ivac
##ivacaine
##ival
##ivariate
IVC
##ive
##IVE
##ïve
##ived
##ively
##iven
##iveness
##iver
##ivered
##ivers
##ivery
##ives
IVF
IVIG
##iving
##ivir
##ivity
IVM
##ivocal
##ivudine
##ix
Ix
IX
##IX
##ixation
##ixed
##iximab
##iz
##izability
##izable
##ization
##izations
##ize
##ized
##izer
##izers
##izes
##izing
##izoph
##izophren
##izophrenia
##izumab
##izz
##izziness
j
##j
J
##J
##ĵ
##Ĵ
ja
##ja
JA
##jac
JAK
Jan
January
Janus
Japan
Japanese
japonic
japonica
japonicum
japonicus
jaundice
jaw
JC
##JD
##je
##ject
##JECT
##jection
##jective
##jector
##jectories
##jectory
##jects
jejun
jejunal
jejuni
jejunum
jelly
Jer
jet
##jet
Jew
JH
##ji
JIA
##jiang
JM
JNK
jo
##jo
job
Joh
John
joining
joint
Joint
jointly
joints
##jor
Jordan
jour
Jour
journal
Journal
journals
journey
##joy
ju
##ju
Ju
##juana
jud
##jud
judg
judge
judged
judgment
judgments
jug
##jug
jugular
juice
July
jump
jumping
jun
##jun
Jun
##Jun
junction
##junction
junctional
junctions
##junctiv
June
junior
Jurkat
jus
##jus
just
##justed
justice
justified
justify
##juvant
juven
##juven
Juven
juvenile
Juvenile
juveniles
juxt
k
##k
K
##K
##ḱ
##ƙ
ka
##ka
Ka
KA
##KA
##kal
Kal
Kap
Kaplan
Kaposi
kappa
##kappa
##kappaB
Kar
kary
##kary
karyotype
Kaw
Kawasaki
kb
##kb
##kB
KB
##KB
KC
##KC
kcal
KCl
KCN
KCNQ
KD
##KD
kDa
##kDa
ke
##ke
Ke
##ked
keep
keeping
##keeping
kel
##kel
##kele
##kelet
##keletal
##keleton
##ken
Ken
Kenya
kept
ker
##ker
Ker
kerat
keratin
keratinocyte
keratinocytes
keratitis
keratocon
keratoplasty
kernel
kernels
##kes
ket
##ket
Ket
ketamine
keto
##keto
ketone
ketones
keV
key
##key
Key
##keys
kg
##kg
kHz
##ki
Ki
KI
##KI
kidne
kidney
Kidney
kidneys
##KII
kil
kill
killed
killer
killing
kin
##kin
Kin
kinase
##kinase
Kinase
kinases
kind
kinds
kine
kinem
kinematic
kinematics
kines
##kines
##kinesia
kinesin
kinet
kinetic
##kinetic
Kinetic
kinetically
kinetics
Kinetics
kinetoch
kinetochore
king
##king
King
kingdom
Kingdom
##kinin
##kinje
##kins
Kir
KIR
##kis
kiss
kisspeptin
kit
##kit
Kit
KIT
kits
kJ
##KK
Kl
KL
##KL
##kle
Klebsiella
KLF
km
##km
Km
kn
##kn
Kn
kne
knee
Knee
knees
knock
##knock
Knock
knockdown
Knockdown
knockout
##knockout
know
knowing
knowledge
Knowledge
known
##known
##ko
KO
##KO
Kong
Kore
Korea
Korean
KP
kPa
Kr
KR
KRAS
##ks
##Ks
KS
##KS
KSHV
##kt
KT
##KT
Ku
kV
Kv
##ky
Ky
##KY
##kyl
kynure
kyph
l
##l
L
##L
##ĺ
##ľ
##Ľ
##ł
##Ł
##ļ
la
##la
La
##La
LA
##LA
lab
##lab
Lab
LAB
label
##label
labeled
##labeled
labeling
##labeling
labelled
##labelled
labelling
labels
labile
labor
laboratories
laboratory
Laboratory
labour
lac
##lac
Lac
lacc
laccase
lack
Lack
lacked
lacking
lacks
lacrimal
lact
##lact
Lact
##lactam
##lactamase
##lactamases
lactate
lactating
lactation
lactic
##lactic
lactis
Lactobacillus
lactoferrin
lactone
lactose
LAD
lae
laevis
lag
Lag
laid
lake
Lake
lakes
lam
##lam
Lam
LAM
lamb
Lamb
lambda
lambs
##lamed
lamell
lamellar
lamin
lamina
laminar
laminin
##lamm
lamp
LAMP
##lamy
land
##land
Land
landf
landfill
landing
landmark
landmarks
##lands
landsc
landscape
landscapes
Lang
Langer
Langerhans
Langmuir
language
##language
Language
languages
Lank
lanth
lanthanide
lap
LAP
lapa
Lapa
laparoscopic
Laparoscopic
laparoscopy
laparotomy
##lapse
lar
larg
Larg
large
Large
largely
larger
largest
larv
larva
larvae
larval
laryng
laryngeal
larynx
LAS
laser
Laser
lasers
##lass
last
##last
Last
lasted
##lastic
lasting
##lasting
Lastly
##lasts
lat
##lat
Lat
LAT
late
Late
##lated
latencies
latency
latent
later
Later
lateral
##lateral
Lateral
lateralization
laterally
latest
latex
lati
Latin
Latino
##lation
latit
latitude
latter
lattice
##lattice
lattices
launched
lavage
law
##law
Law
laws
lax
lay
##lay
layer
##layer
layered
##layered
layers
laying
Lb
LB
LBP
LC
##LC
LCA
##ld
LD
##LD
LDH
LDL
##LDL
le
##le
Le
##Le
LE
##LE
##lea
leach
leachate
leaching
lead
##lead
Lead
leader
leaders
leadership
leading
##leading
leads
leaf
##leaf
Leaf
leaflet
leak
leakage
lean
lear
##lear
Lear
learn
learned
learners
learning
##learning
Learning
least
leave
leaves
leaving
##leb
##lebrand
##lebsiella
lec
##lec
lect
##lect
##lected
lectin
##lectin
##lecting
lectins
##lection
##lective
##lectively
##lectivities
##lectivity
##lectomy
lecture
led
##led
LED
##lee
##leep
left
Left
leg
##leg
Leg
legal
##lege
legi
Legion
Legionella
legis
legisl
legislation
legs
legume
##lei
##leigh
leiomy
leiomyoma
leishman
Leishman
Leishmania
leishmaniasis
leisure
##lem
##lement
##lements
##lemm
##lemma
##lemmas
len
##len
lenalidomide
length
##length
Length
lengthen
lengthening
lengths
lens
lenses
lentiviral
lentivirus
lep
##lep
Lep
Lepid
Lepidoptera
leprosy
lept
Lept
leptin
Leptin
leptosp
Leptosp
##ler
##lers
les
##les
Les
lesbian
lesion
##lesion
lesions
Lesions
less
##less
Less
lesser
##lessness
lessons
Lessons
let
##let
Let
##leted
##letes
leth
lethal
##lethal
lethality
##letion
##lets
lett
letter
Letter
letters
lettuce
##leu
Leu
##Leu
leuc
Leuc
leucine
leuk
##leuk
Leuk
leukaemia
leukemia
Leukemia
leukemic
##leukin
leukocyte
leukocytes
leukotri
lev
Lev
level
##level
Level
levels
Levels
lever
levodopa
levofloxacin
Lew
Lewis
Lewy
lex
##lex
##lexes
lexical
##ley
Leydig
LF
##LF
LG
LH
LHC
li
##li
Li
##Li
LI
##LI
liability
lib
libitum
libr
Libr
libraries
library
Library
lic
##lic
Lic
##LIC
licensed
##lices
##lich
lichen
##lict
##licted
lid
lidocaine
lie
##lie
##lier
lies
##lies
##liest
lif
LIF
life
##life
Life
lifelong
lifes
lifespan
lifest
Lifest
lifestyle
Lifestyle
lifestyles
lifetime
lifetimes
lift
lifting
lig
##lig
Lig
ligament
ligaments
ligand
##ligand
Ligand
ligands
ligase
ligases
ligation
light
##light
Light
lighting
lign
lignin
lignocell
lignocellulosic
##ligo
lik
##lik
Lik
like
##like
Like
##Like
likelihood
likely
##likely
Likewise
lim
##lim
Lim
LIM
limb
##limb
limbic
limbs
limit
limitation
limitations
limited
##limited
Limited
limiting
##limiting
limits
lin
##lin
Lin
LIN
line
##line
Line
##LINE
lineage
##lineage
lineages
linear
##linear
Linear
linearity
linearly
##lined
lines
##lines
linezolid
ling
##ling
##lings
lingual
##lingual
linguistic
lining
##lining
link
##link
Link
linkage
linkages
linked
##linked
linker
##linker
linkers
linking
##linking
links
##links
Linn
linoleic
lip
##lip
Lip
LIP
lipase
lipid
##lipid
Lipid
##lipidemia
##lipidemic
lipids
lipogenesis
lipolysis
lipophilic
lipoprotein
lipoproteins
liposomal
liposome
liposomes
##liptin
liqu
liquid
##liquid
Liquid
liquids
##LISA
list
##list
List
listed
listeners
listening
Lister
Listeria
lists
lit
##lit
Lit
##litaxel
##litazone
liter
##liter
Liter
literacy
literature
Literature
lith
Lith
lithium
Lithium
lithography
litter
litterm
littermates
little
Little
live
Live
lived
##lived
liver
Liver
livers
lives
##lives
livest
livestock
living
##living
Living
liz
lizards
##ll
LL
##LL
##lla
##ller
LM
##LM
LMP
LMW
Ln
LN
##LN
lnc
LNC
LNCaP
lncRNA
lncRNAs
lo
##lo
Lo
LO
##LO
load
##load
Load
loaded
##loaded
loading
##loading
loadings
loads
lob
##lob
lobar
lobe
lobectomy
lobes
loc
Loc
LOC
local
##local
Local
localisation
localised
localities
localization
##localization
Localization
localize
localized
##localized
localizes
locally
locate
located
location
locations
loci
##lock
locked
##locked
locking
locomotion
locomotor
locoreg
locoregional
locus
##locus
##lod
LOD
##lodipine
##loem
##lofen
##lofenac
log
##log
Log
logar
logic
logical
logistic
Logistic
lon
London
loneliness
long
##long
Long
longer
longest
longevity
longitudinal
Longitudinal
longitudinally
look
##look
looked
looking
looks
loop
##loop
loops
loos
loose
loosening
LOQ
##lor
##lora
##loro
los
##los
Los
LOS
##losan
losartan
lose
losing
loss
##loss
Loss
losses
lost
lot
##lot
##lotinib
Lou
loud
low
##low
Low
lower
##lower
Lower
lowered
lowering
##lowering
lowers
lowest
LOX
##loxacin
Lp
LP
##LP
LPA
LPL
LPO
LPS
LR
##LR
LRP
LRRK
##ls
##Ls
LS
##LS
LSD
Lt
LT
##LT
Ltd
LTD
LTP
##lu
Lu
LU
##LU
lubric
luc
##luc
Luc
luciferase
##luent
lum
lumb
lumbar
Lumbar
lumen
lumin
luminal
luminance
luminescence
luminescent
lump
lung
Lung
lungs
##luor
##luores
##luorescence
##luorescent
lup
Lup
lupus
##lus
##lusters
lute
luteal
lutein
luteinizing
luteolin
##lutide
##lution
lux
##lux
LV
##LV
LVAD
LVEF
LXR
ly
##ly
Ly
LY
lyase
##lyc
##lycer
lycop
lycopene
lying
##lying
##lyl
Lyme
lymph
##lymph
Lymph
lymphaden
lymphadenectomy
lymphadenopathy
lymphatic
lymphedema
lymphoblastic
lymphocyte
##lymphocyte
lymphocytes
##lymphocytes
lymphocytic
lymphoid
lymphoma
Lymphoma
lymphomas
lyophil
##LYP
lys
##lys
Lys
##Lys
lysate
lysates
lysine
##lysine
lysis
##lysis
lysophosph
lysosomal
lysosome
lysosomes
lysozyme
lytic
##lytic
m
##m
M
##M
##ṁ
##Ṁ
##ṃ
ma
##ma
mA
Ma
MA
##MA
mAb
##mable
mAbs
mac
##mac
Mac
MAC
maca
macaque
macaques
mach
Mach
machine
machinery
machines
macro
macroc
macrocyclic
macrol
macrolide
macrom
macromolecular
macromolecules
macron
macrop
macroph
macrophage
##macrophage
Macrophage
macrophages
##macrophages
Macrophages
macroscopic
macular
Mad
MAD
made
##made
mag
magic
magn
Magn
magna
magnesium
magnet
magneti
magnetic
Magnetic
magnetically
magnetite
magnetization
magneto
magnitude
magnitudes
main
Main
mainland
mainly
mainstay
mainstream
maintain
maintained
maintaining
maintains
maintenance
Maintenance
maize
major
Major
majority
make
makers
##makers
makes
making
##making
Making
mal
##mal
Mal
MAL
maladaptive
malaria
Malaria
malate
Malaw
Malawi
Malay
Malaysia
MALDI
male
##male
Male
males
Males
malformation
malformations
malign
malignancies
malignancy
malignant
##malignant
Malignant
malnutrition
malocclusion
malon
malondialdehyde
malt
MALT
maltreatment
##MAM
mamm
Mamm
mammal
mammalian
Mammalian
mammals
mammary
mammography
man
##man
Man
##Man
manage
managed
management
##management
Management
manager
managers
managing
Managing
mand
mandatory
mandible
mandibular
##mandibular
maneu
maneuver
mang
Mang
mangan
manganese
mangro
mangrove
manif
manifest
manifestation
manifestations
manifested
manifesting
manifests
manifold
manip
Manip
manipulate
manipulated
manipulating
manipulation
manipulations
mann
##mann
Mann
manner
mannitol
mannose
mansoni
mantle
manual
Manual
manually
manufact
manufacture
manufactured
manufacturer
manufacturers
manufacturing
manure
manus
manuscript
many
Many
MAO
map
##map
Map
MAP
##MAP
MAPK
##MAPK
MAPKs
mapped
mapping
Mapping
maps
mar
##mar
Mar
MAR
March
mares
marg
margin
marginal
marginally
margins
mari
marijuana
marine
Marine
marital
mark
##mark
Mark
marked
markedly
marker
markers
Markers
market
marketed
marketing
markets
marking
Markov
marks
marm
marmos
marri
marriage
married
marrow
Mart
mas
Mas
MAS
mask
masked
masking
mass
##mass
Mass
massage
masses
massive
mast
Mast
mastectomy
master
mastic
mastitis
mat
##mat
Mat
MAT
match
matched
##matched
matches
matching
mate
mater
material
Material
materials
Materials
matern
maternal
Maternal
maternally
maternity
##mates
mathematical
Mathematical
mathematics
##matic
mating
matrices
matrix
##matrix
Matrix
mats
matter
matters
maturation
mature
matured
maturity
max
##max
Max
maxilla
maxillary
maxillofacial
maxim
Maxim
maxima
maximal
##maximal
maximally
maximize
maximizing
maximum
Maximum
may
May
mays
maze
##maze
##mb
Mb
MB
##MB
MBC
##mber
MBL
MBP
##mC
Mc
MC
##MC
MCA
MCAO
MCC
MCD
MCF
MCI
##MCI
Mcl
MCL
MCM
MCP
mCR
MCs
##MCs
MCS
MCT
MD
##MD
MDA
MDCK
MDCT
MDD
MDM
MDMA
MDR
MDS
MDSCs
me
##me
Me
##Me
ME
##ME
meal
meals
mean
##mean
Mean
meaning
meaningful
meanings
means
meant
Meanwhile
meas
##meas
Meas
measles
measurable
measure
Measure
measured
measurement
Measurement
measurements
Measurements
measures
Measures
measuring
Measuring
meat
mec
MEC
mechan
Mechan
mechanical
##mechanical
Mechanical
mechanically
mechanics
mechanism
Mechanism
mechanisms
Mechanisms
mechanistic
Mechanistic
Mechanistically
##mectin
med
##med
Med
##Med
MED
##medetomidine
medi
##medi
Medi
media
##media
medial
median
Median
mediast
mediastinal
mediastinum
mediate
##mediate
mediated
##mediated
##Mediated
##mediately
mediates
mediating
mediation
##mediation
mediator
mediators
medic
Medic
Medicaid
medical
##medical
Medical
medically
Medicare
medication
##medication
Medication
medications
medicinal
medicine
##medicine
Medicine
medicines
meditation
Mediterranean
medium
Medline
MEDLINE
medull
medulla
medullary
medulloblastoma
meet
meeting
Meeting
meetings
meets
MEF
meg
MEG
##mega
megakary
MeHg
##Meier
meiosis
meiotic
MEK
mel
##mel
Mel
MEL
melamine
melan
##melan
Melan
melanin
melanocytes
melanocytic
melanogaster
melanoma
Melanoma
melanomas
melatonin
Melatonin
mell
Mell
mellitus
melt
melting
mem
Mem
memb
Memb
member
##membered
members
Members
membership
membran
membrane
##membrane
Membrane
membranes
membranous
memories
memory
Memory
men
##men
Men
MEN
Mend
Mendelian
mening
meningioma
meningiomas
meningitis
meningococcal
meniscal
meniscus
menop
menopausal
##menopausal
menopause
menstrual
ment
##ment
##MENT
mental
##mental
Mental
mentally
##mentary
##mentation
##mented
##menting
mention
mentioned
##mentioned
##ments
MeOH
MEP
mer
##mer
Mer
merc
##merc
mercury
##mercury
Mercury
mere
merely
merg
merist
meristem
merit
merits
##mers
MERS
mes
##mes
Mes
MES
mesangial
mesench
mesenchymal
##mesenchymal
Mesenchymal
mesenchyme
mesenteric
mesh
meso
mesoderm
mesophilic
mesoporous
mesothelioma
mess
message
messages
messenger
met
##met
Met
##Met
MET
meta
Meta
metab
metabol
##metabol
Metabol
metabolic
##metabolic
Metabolic
metabolically
metabolism
Metabolism
metabolite
metabolites
metabolized
metabolizing
metabolome
metabolomic
metabolomics
metabotropic
metac
metagen
metagenomic
metal
##metal
Metal
metall
Metall
metallic
metallo
metalloprote
metalloprotein
metallothione
metals
metam
metamorph
metamorphosis
metaph
metaphase
metaplasia
metast
metastable
metastas
metastases
metastasis
Metastasis
metastatic
##metastatic
Metastatic
metat
metathesis
metazo
meteor
meteorological
##meter
metformin
Metformin
meth
##meth
Meth
METH
methacrylate
methadone
methamphetamine
methan
Methan
methane
methanol
methanolic
methicillin
methionine
##methionine
method
Method
methodological
methodologies
methodology
methods
Methods
METHODS
methotrexate
methoxy
##methoxy
methyl
##methyl
Methyl
##Methyl
methylated
##methylated
methylation
##methylation
Methylation
methylene
methylphenidate
metic
##metics
metric
##metric
##metrical
##metrically
metrics
##metries
metron
metronidazole
metropolitan
##metry
MetS
MeV
Mex
Mexican
Mexico
MF
##MF
MFC
mg
##mg
Mg
##Mg
MG
##MG
mGlu
mGluR
MGMT
MgO
MH
MHC
MHz
mi
##mi
Mi
MI
##MI
##mia
mic
##mic
Mic
MIC
##MIC
mice
##mice
Mice
micellar
micelle
micelles
Mich
Michael
Michigan
micro
##micro
Micro
microal
microalgae
microangi
microar
microarray
Microarray
microarrays
microb
Microb
microbe
microbes
microbi
Microbi
microbial
Microbial
microbiological
microbiology
microbiome
microbiota
microbubbles
microc
Microc
microcapsules
microcirc
microd
microdialysis
microdiss
microdomains
microemulsion
microenviron
microextraction
microf
microflora
microflu
microfluidic
microfluidics
microg
microgl
microglia
microglial
micrograph
microinjection
microl
microm
##microm
microM
micrometer
micromol
micromolar
micron
##micron
micronucle
micronucleus
micronutrient
microorgan
microorganism
microorganisms
microp
Microp
microparticles
microRNA
MicroRNA
microRNAs
MicroRNAs
micros
Micros
microsatellite
microsatellites
microscale
microscop
microscope
microscopic
Microscopic
microscopy
Microscopy
microsomal
microsomes
microsp
microsphere
microspheres
microstruct
microstructural
microstructure
microstructures
microsurgical
Microt
microtub
microtubule
microtubules
microv
microvascular
microvessel
microwave
MICs
##micutes
mid
##mid
Mid
midazolam
midbrain
middle
Middle
midgut
midline
midw
midwives
MIF
mig
Mig
might
migraine
migrant
migrants
migrate
migrated
migrating
migration
Migration
migratory
mil
Mil
mild
Mild
milder
mildly
milest
mili
milieu
military
milk
Milk
mill
##mill
Mill
milling
million
millions
millisecond
mim
##mim
Mim
mimetic
mimic
mimicked
mimicking
mimicry
mimics
min
##min
Min
##minant
mind
Mind
mindfulness
mine
mineral
Mineral
mineralization
mineralized
minerals
##ming
mini
Mini
miniatur
miniature
miniaturized
minim
Minim
minima
minimal
Minimal
minimally
Minimally
minimization
minimize
minimized
minimizes
minimizing
minimum
mining
##ministration
Ministry
Minnesota
minocycline
minor
minorities
minority
minute
##minute
minutes
MIP
mir
##mir
miR
##miR
Mir
MiR
MIR
miRNA
miRNAs
mirror
mirrors
mis
##mis
Mis
MIS
misc
miscarriage
miscon
misdiagnosed
misdiagnosis
misfolded
misfolding
misleading
mism
mismatch
miss
Miss
missed
missense
missing
mission
##mission
mist
misuse
mit
##mit
Mit
MIT
mite
mites
mitig
mitigate
mitigated
mitigating
mitigation
##mitis
mitochond
Mitochond
mitochondria
Mitochondria
mitochondrial
Mitochondrial
mitogen
mitophagy
mitosis
mitotic
mitral
##mitted
##mitting
##mium
mix
##mix
Mix
mixed
##mixed
Mixed
mixing
mixture
##mixture
mixtures
MJ
MK
ml
##ml
mL
##mL
ML
##ML
MLC
MLL
MLST
mm
##mm
mM
##mM
MM
##MM
MMA
MMC
MMF
mmHg
mmol
MMP
##MMP
MMPs
MMR
MMS
MMSE
MMT
Mn
##Mn
MN
##MN
MnO
##MnO
MNPs
mo
##mo
Mo
##Mo
MO
##MO
mobil
mobile
Mobile
mobility
##mobility
mobilization
mock
mod
##mod
Mod
MOD
modal
##modal
modalities
modality
mode
##mode
model
##model
Model
modeled
modeling
Modeling
modelled
modelling
Modelling
models
Models
moder
moderate
##moderate
Moderate
moderated
moderately
moderating
modern
Modern
modes
modest
modestly
modifiable
modification
Modification
modifications
modified
##modified
Modified
modifier
modifiers
modifies
modify
modifying
##modifying
modul
modular
modulate
modulated
##modulated
modulates
modulating
modulation
Modulation
modulations
modulator
modulators
modulatory
module
modules
moduli
##modulin
modulus
MOF
MOFs
moieties
moiety
moist
moisture
mol
##mol
Mol
molar
molars
mold
mole
molec
molecular
##molecular
Molecular
molecularly
molecule
##molecule
molecules
moll
mollusc
molyb
molybdenum
mom
moment
moments
momentum
mon
##mon
Mon
##monary
money
Mong
##monic
monit
monitor
monitored
monitoring
##monitoring
Monitoring
monitors
monkey
monkeys
mono
Mono
monoamine
monoc
monoclinic
monoclonal
monocyt
monocyte
monocytes
monocytic
monocytogenes
monod
monodisper
monodisperse
monogenic
monol
monolayer
monolayers
monolith
monolithic
monomer
monomeric
monomers
mononuclear
monoph
monophosphate
monophyletic
monos
monot
monoter
monotherapy
monovalent
monoxide
mont
Mont
Monte
month
##month
monthly
months
##months
mood
mor
Mor
MOR
moral
morbid
##morbid
morbidities
##morbidities
morbidity
more
##more
More
moreover
Moreover
mori
morning
morph
Morph
morphine
morphogenesis
morphogenetic
morphologic
morphological
Morphological
morphologically
morphologies
morphology
Morphology
morphometric
morphometry
Morris
mort
mortality
Mortality
##mortem
mos
Mos
MoS
mosaic
##mosp
mosquito
mosquitoes
moss
most
##most
Most
mostly
mot
moth
mother
Mother
mothers
Mothers
motif
motifs
motile
motility
motion
Motion
motions
motiv
motivated
motivation
motivational
motivations
motives
motone
motoneurons
motor
##motor
Motor
motors
moun
mount
mountain
Mountain
mounted
mounting
mouse
Mouse
mouth
##mouth
move
moved
movement
Movement
movements
moves
moving
##mp
mP
MP
##MP
MPa
MPA
mPFC
##mph
MPM
MPN
MPO
MPP
MPs
##MPs
MPS
MPTP
Mr
MR
##MR
MRA
MRD
MRI
##MRI
mRNA
##mRNA
mRNAs
MRP
MRS
MRSA
##MRSA
##MRT
ms
##ms
Ms
##Ms
MS
##MS
MSA
MSC
##MSC
MSCs
##MSCs
##mselves
MSH
##MSH
MSI
MSM
MSP
MST
mt
mT
Mt
MT
##MT
MTA
Mtb
MTB
mTBI
MTC
mtDNA
MTH
MTHFR
mTOR
##mTOR
mTORC
MTs
##MTS
MTT
MTX
mu
##mu
Mu
MU
muc
Muc
MUC
much
Much
mucin
mucinous
mucosa
mucosal
mucositis
mucous
mucus
mud
mug
##muir
mul
Mul
Müller
mult
multi
##multi
Multi
multic
Multic
multicellular
multicenter
Multicenter
multicentre
multich
multicomponent
Multid
multidetector
multidrug
Multidrug
multif
Multif
multifaceted
multifactorial
multifocal
multiforme
multifunctional
multil
multilayer
multilevel
multilocus
multim
Multim
multimodal
multimodality
multin
multiple
Multiple
multiplex
Multiplex
multiplexed
multiplexing
multiplication
multiplicity
multipot
multipotent
multiscale
multisensory
multistep
multisystem
multit
multitude
multiv
Multiv
multivalent
multivariable
multivariate
Multivariate
mum
##mun
munic
municip
municipal
mur
##mur
Mur
murine
Murine
mus
##mus
Mus
musc
##musc
Musc
muscarinic
muscle
##muscle
Muscle
muscles
muscul
muscular
musculoskeletal
mush
mushroom
music
musical
muss
mussel
mussels
must
mustard
mut
##mut
Mut
mutagen
mutagenesis
mutagenic
mutans
mutant
##mutant
Mutant
mutants
mutated
##mutated
mutation
##mutation
Mutation
mutational
mutations
Mutations
mutual
mutually
mV
MV
##MV
MVC
MVD
mW
MW
##MW
MWCNT
MWCNTs
MX
my
##my
My
##My
MY
##MY
myasthenia
MYB
myc
##myc
Myc
##Myc
MYC
mycel
mycobacteria
mycobacterial
Mycobacterium
mycop
mycophenolate
Mycoplasma
mycorrhizal
mycotoxin
mycotoxins
MyD
myel
Myel
myelin
myelination
myelodysplastic
myelogenous
myeloid
Myeloid
myeloma
myelopathy
myeloperoxidase
myo
Myo
myoblasts
myocardi
myocardial
Myocardial
myocarditis
myocardium
myocl
myocyte
myocytes
myof
myofib
myofibroblasts
myogenic
myoglobin
myomet
myopathy
myopia
myosin
myotubes
myri
myriad
myster
myx
MZ
n
##n
N
##N
##ń
##Ń
##ǹ
##ň
##ñ
##Ñ
##ṅ
##Ṅ
##ņ
##ṇ
na
##na
Na
##Na
NA
##NA
NAA
nAC
NAc
##NAc
NAC
nAChR
nAChRs
NaCl
nad
NAD
NADH
NADPH
NAF
NAFLD
##nai
nail
##naire
##naires
naive
##naive
naïve
##naïve
naked
nal
##nal
##NAL
naloxone
##nals
nam
##nam
Nam
name
##NAME
named
namely
names
naming
nan
##nan
Nan
nano
Nano
nanob
nanoc
Nanoc
nanocarriers
nanoclusters
nanocompos
nanocomposite
nanocomposites
nanocrystal
nanocrystalline
nanocrystals
nanod
nanof
nanofib
nanofiber
nanofibers
nanofibrous
Nanog
nanom
nanomaterial
nanomaterials
nanomedicine
nanometer
nanomolar
nanop
##nanop
Nanop
nanopartic
nanoparticle
nanoparticles
Nanoparticles
nanopl
nanopore
nanopores
nanoporous
nanor
nanorod
nanorods
nanos
Nanos
nanoscale
nanosecond
nanoshe
nanosheets
nanospheres
nanostruct
nanostructure
nanostructured
nanostructures
nanotechnology
nanotub
nanotube
nanotubes
nanow
nanowire
nanowires
NaOH
nap
NAP
naph
##naph
naphth
##naphth
naphthalene
napus
nar
##nar
Nar
narc
narco
naring
narrative
narratives
narrow
narrowing
##nary
nas
Nas
nasal
Nasal
nascent
NASH
nasopharyngeal
nat
##nat
Nat
NAT
##NAT
natal
##natal
##natally
nation
Nation
national
National
nationally
nations
nationwide
native
##native
Native
natriuretic
natural
##natural
Natural
naturalistic
naturally
nature
Nature
nausea
Nav
navig
navigation
Nb
##Nb
NB
##NB
NBS
nc
##nc
NC
##NC
NCC
##NCE
NCI
NCs
NCS
NCT
##nd
Nd
ND
##ND
NDV
ne
##ne
Ne
##Ne
NE
##NE
##nea
##neal
##nealing
near
Near
nearby
nearest
nearly
Nearly
nebul
nec
##nec
Nec
NEC
necess
necessarily
necessary
necessit
necessitates
necessitating
necessity
neck
Neck
necro
necrop
necrosis
necrotic
necrotizing
nect
nectar
##ned
##nee
need
needed
needle
##needle
needles
needs
neg
Neg
negative
##negative
Negative
negatively
negativity
neglect
neglected
neglig
negligible
negoti
neigh
neighb
neighbor
neighborhood
neighborhoods
neighboring
neighbors
neighbour
neighbourhood
neighbouring
Neisser
Neisseria
neither
Neither
##nel
##nels
nemat
Nemat
nematic
nematode
nematodes
neo
neoadjuvant
neocortex
neocortical
neoformans
neoin
neon
neonatal
Neonatal
neonate
neonates
neoplasia
neoplasm
neoplasms
neoplastic
##neoplastic
neovascular
Nep
Nepal
neph
Neph
nephrectomy
nephritis
nephron
nephropathy
nephrot
nephrotic
nephrotoxicity
##ner
NER
##ners
nerv
nerve
Nerve
nerves
nervosa
nervous
##nes
##nesota
##ness
nest
nested
nests
net
##net
Net
NET
Nether
Netherlands
nets
NETs
network
##network
Network
networking
networks
Networks
neu
##neu
Neu
##neum
##neumonia
neur
neural
Neural
neuralgia
neuraminidase
neurite
neuro
Neuro
neuroanatomical
neurobehavioral
neurobi
neurobiological
neurobiology
neuroblast
neuroblastoma
neurochemical
neurocognitive
neurode
neurodevelop
neuroendocrine
neurofib
neurogenesis
neurogenic
neuroimaging
Neuroimaging
neurolog
neurologic
neurological
Neurological
neurology
neurom
neuromod
neuromuscular
neuron
neuronal
##neuronal
Neuronal
neurones
neurons
Neurons
neurop
Neurop
neuropath
neuropathic
neuropathies
neuropathology
neuropathy
##neuropathy
neuropeptide
neuropeptides
neuroph
neuroplastic
neuroprot
neuroprotection
neuroprotective
neuros
Neuros
neuroscience
neurosurgery
neurosurgical
neurot
neurotoxic
neurotoxicity
neurotoxin
neurotrans
neurotransmit
neurotroph
neurotrophic
neurotrophin
neurovascular
neut
neutral
##neutral
Neutral
neutralization
neutralizing
neutron
neutrop
neutropenia
neutroph
neutrophil
Neutrophil
neutrophils
never
Never
nevertheless
Nevertheless
nevi
nevus
new
New
newbor
newborn
newborns
newer
newly
news
##nex
##nexin
next
Next
##ney
NF
##NF
NFAT
ng
##ng
NG
##NG
##ŋ
NGF
NGS
NH
##NH
NHC
NHE
NHL
NHS
ni
##ni
Ni
##Ni
NI
##NI
##nia
##nial
##nian
nic
##nic
Nic
NIC
niche
niches
##nicity
nick
nickel
Nicotiana
nicotin
nicotinamide
nicotine
Nicotine
nicotinic
NICU
nif
nig
niger
Niger
Nigeria
Nigerian
night
##night
nigra
NIH
##nii
nil
Nile
nin
Nin
nine
##nine
Nine
Nineteen
Ninety
##ning
NiO
##niotic
nipple
NIR
##NIR
NIRS
##nis
##nisolone
nit
##nit
Nit
##nitine
nitr
nitrate
nitric
Nitric
nitride
nitrification
nitrite
nitro
##nitro
Nitro
nitrogen
Nitrogen
##nitrop
nitros
##nitros
nitrous
NK
##NK
NKG
NKT
##NKT
NL
##NL
NLR
NLRP
NLS
nm
##nm
nM
##nM
NM
##NM
NMD
NMDA
NMDAR
NMO
nmol
NMR
##NMR
NN
##NN
nNOS
no
##no
No
NO
##NO
noble
noc
nociception
nociceptive
noct
nocturnal
nod
Nod
NOD
nodal
node
nodes
nodular
nodule
nodules
##noea
noise
##noise
noisy
nom
nomenclature
nominal
non
##non
Non
nonalcoholic
nonc
noncoding
noncovalent
nond
nondiabetic
none
None
nonequilibrium
Nonetheless
nonex
nonf
nong
nonhuman
Nonin
noninvasive
Noninvasive
nonlinear
Nonlinear
nonlinearity
nonm
nonparametric
nonpolar
nons
Nons
nonsense
nonspecific
nonsteroidal
nonsurgical
nontoxic
nonun
nor
Nor
noradrenaline
noradrenergic
norepinephrine
norm
Norm
normal
##normal
Normal
normalization
normalized
normally
normative
normot
normotensive
normoxia
normoxic
norms
norovirus
nort
Nort
north
North
Northeast
northeastern
northern
Northern
Norway
Norwe
Norwegian
nos
Nos
NOS
##NOS
nose
nosocomial
not
##not
Not
NOT
notable
notably
Notably
Notch
NOTCH
note
noted
notes
noteworthy
nothing
notic
notice
noticeable
noticed
notion
##nourished
nov
Nov
novel
Novel
novelty
November
novo
now
Now
nowadays
Nowadays
nox
Nox
NOX
noxious
NP
##NP
NPC
NPCs
NPM
NPs
##NPs
NPS
NPY
NQ
##nr
##nR
Nr
NR
##NR
Nrf
NRF
##nRH
ns
##ns
##Ns
NS
##NS
NSA
NSAID
NSAIDs
NSC
NSCLC
NSCs
##nsic
##nson
NSP
NST
nt
##nt
Nt
NT
##NT
NTR
##NTR
##NTs
NTS
nu
NU
nucle
##nucle
Nucle
nuclear
##nuclear
Nuclear
nuclease
nucleation
nuclei
nucleic
nucleob
nucleolar
nucleophilic
nucleoside
nucleosides
nucleosome
nucleosomes
nucleotide
##nucleotide
Nucleotide
nucleotides
nucleus
nude
null
##null
numb
number
##number
Number
numbers
numer
##numer
Numer
numerical
Numerical
numerically
numerous
Numerous
nur
Nur
nurse
Nurse
nurses
Nurses
nursing
Nursing
nut
##nut
nutr
nutraceutical
nutri
Nutri
nutrient
nutrients
nutrition
##nutrition
Nutrition
nutritional
Nutritional
NV
##NV
NW
NWs
##ny
NY
nymph
nymphs
nyst
NZ
o
##o
O
##O
##ó
##Ó
##ò
##Ò
##ŏ
##ô
##ồ
##ổ
##Ô
##ǒ
##ö
##Ö
##ő
##Ő
##õ
##Õ
##ȯ
##Ȯ
##ø
##Ø
##ǫ
##ō
##Ō
##ȍ
##ọ
##ơ
##ớ
##ɔ
##oa
##oA
OA
##OA
##oactive
##oad
##oadjuvant
##oagulation
oak
##oal
##oalveolar
##oarth
##oarthritis
oat
##oate
OATP
ob
##ob
Ob
OB
##OB
##oba
##obac
##obacilli
##obacillus
##obacter
##obacteria
##obacterial
##obacterium
##obarb
##obarbital
##obarbituric
##obaric
##obe
##obenz
##obenzene
##ober
obes
obese
##obese
Obese
obesity
##obesity
Obesity
##obi
##obia
##obic
##obil
##obile
##obiliary
##obility
##obilization
##obilized
##obiographical
##obiological
##obiology
##obium
obj
Obj
object
OBJECT
objective
Objective
OBJECTIVE
objectively
objectives
Objectives
objects
##obl
##oblast
##oblastic
##oblastoma
##oblastomas
##oblasts
##oble
obli
oblig
obligate
oblique
obliter
##obox
##obronchial
obsc
obscure
obser
##obser
Obser
observ
Observ
observable
observation
Observation
observational
Observational
observations
observe
observed
observer
##observer
observers
observing
obsessive
obst
Obst
obstac
obstacle
obstacles
obstetric
Obstetric
obstruc
obstruction
obstructive
Obstructive
obtain
obtained
obtaining
##obut
##obutyric
obvious
obviously
oc
##oc
##oC
Oc
OC
##OC
##oca
##ocaine
##ocal
##ocalcin
##ocalin
##ocalization
##ocaps
##ocarb
##ocarcin
##ocarcinoma
##ocarcinomas
##ocardi
##ocardial
##ocarditis
##ocarp
##ocatalytic
##ocate
##ocated
##ocation
##ocations
occ
##occ
Occ
occas
occasion
occasional
occasionally
occasions
##occer
occipital
##occipital
occl
occluded
occlusal
occlusion
##occlusion
occlusive
occult
occup
##occup
Occup
occupancy
occupation
occupational
Occupational
occupied
occupy
occur
occurred
occurrence
##occurrence
Occurrence
occurrences
occurring
##occurring
occurs
##occus
OCD
oce
##oce
ocean
Ocean
oceanic
##ocele
##ocell
##ocellular
##ocene
##ocent
##ocentric
##ocephal
##oceptor
##ocer
och
##och
##ochastic
##oche
##ochem
##ochemical
##ochemically
##ochemistry
##ochlor
##ocholine
##ochond
##ochrom
##ochromatic
##ochromatin
##ochrome
##ochromes
##ochromic
##ochromocytoma
##ochth
##oci
##ocial
##ociated
##ociation
##ocicep
##ociception
##ociceptive
##ocin
##ocities
##ocity
##ock
##OCK
##ocket
##ockets
##ocking
##ocks
##ocl
##oclinic
##oclonal
##oco
##ococc
##ococcal
##ococci
##ococcosis
##ococcus
##ocol
##ocolitis
##ocomial
##ocomp
##ocompatibility
##ocompatible
##ocon
##oconjug
##oconjugates
##oconstric
##oconversion
##ocor
##ocortex
##ocortic
##ocortical
##ocorticoid
##ocortin
##ocrine
##ocrit
oct
##oct
Oct
OCT
##OCT
octa
octahedral
##oction
October
##octyl
ocul
ocular
##ocular
Ocular
oculomotor
##ocument
##ocumented
##ocus
##ocused
##ocusing
##ocutaneous
##ocy
##ocyan
##ocyanate
##ocyanin
##ocyanine
##ocycl
##ocycles
##ocyclic
##ocycline
##ocyst
##ocysteine
##ocystis
##ocysts
##ocyt
##ocyte
##ocytes
##ocytic
##ocytoma
##ocytosis
od
##od
Od
OD
##OD
##oda
##odal
##odality
odd
odds
##ode
##odec
##oded
##odef
##odegrad
##odegradation
##odemographic
##oden
##odenal
##odend
##odeoxy
##odeoxyglucose
##oderm
##oderma
##odermal
##odes
##odex
##odextrin
##odg
##odgkin
##odi
##odia
##odial
##odialysis
##odiazep
##odic
##odied
##odies
##odil
##odin
##odine
##oding
##odium
##odomain
##odon
##odone
odont
##odontic
odontogenic
##odopa
odor
odors
odour
##ods
##odu
##oduoden
##oduodenectomy
##ody
##odyn
##odynamic
##odynamically
##odynamics
##odynia
##odys
##odysplastic
##odystrophy
##oe
OE
##OE
##œ
##Œ
##oea
##oeae
##oeb
##oeba
oedema
##oemb
##oembolization
##oencephal
##oencephalopathy
##oepid
oesophag
oesophageal
##oesophageal
oestrogen
of
##of
Of
OF
##OF
##ofacial
##ofemoral
##ofen
##ofer
##oferrin
off
##off
Off
offenders
offer
offered
offering
offers
offic
office
Office
officers
official
officinal
officinalis
##offs
offset
offspring
##ofib
##ofibrate
##ofibrosis
##ofil
##ofilm
##ofl
##oflag
##oflav
##oflavin
##ofloxacin
##ofluorescence
##ofluorescent
##oflurane
##ofol
##ofovir
##ofrequency
##ofrontal
##oft
often
Often
##ofuran
##og
##oG
##OG
##oga
##ogas
##ogaster
##ogastric
OGD
##oge
##ogel
##ogels
##ogen
##ogene
##ogeneic
##ogeneity
##ogeneous
##ogenes
##ogenesis
##ogenetic
##ogenetics
##ogenic
##ogenicity
##ogenin
##ogenomic
##ogenomics
##ogenous
##ogens
##ogeny
##ogether
##ogical
##ogl
##ogle
##oglitazone
##oglob
##oglobin
##oglobulin
##oglobulins
##ogluc
##oglut
##ogly
##oglyc
##oglycan
##oglycans
##ogn
##ogni
##ognition
##ognitions
##ognitive
##ogo
##ogon
##ogonal
##ogra
##ograft
##ografts
##ogram
##ograms
##ogran
##ograp
##ograph
##ographic
##ographical
##ographically
##ographies
##ographs
##ography
##ogrel
##ögren
##ogroup
##ogs
OGT
##ogue
##ogy
##oh
OH
##OH
##OHD
##OHDA
##ohist
##ohumeral
##ohyd
##ohydrate
##oi
OI
##oic
##oice
##oichi
##oid
##oidal
##oide
##oides
##oidosis
##oids
##oidy
##oiesis
##oietin
oil
##oil
Oil
oils
##oin
##oinos
##oinositi
##oinositide
##oins
##oint
##ointeg
##ointing
##oints
##oir
##ois
##oisomerase
##oj
##ok
##okal
##oke
##oked
##oken
##oker
##okeratin
##okers
##okes
##okinase
##okine
##okines
##okinetic
##okinetics
##oking
##okinin
ol
##ol
##oL
Ol
OL
##OL
##ola
##olab
##olae
olanzapine
##olar
##olarization
##olars
##olase
##olate
##olateral
##olates
##olation
old
##old
Old
older
Older
oldest
##olding
##olds
ole
##ole
##olec
##olecular
##olecule
##olecules
##oled
olef
oleic
##oleic
##olence
##olenic
##oler
##olerance
##olerant
##oles
##olester
##olesterol
##olesterole
##olet
##olf
olfactory
##olgi
##oli
##olia
##olic
##olid
##olide
olig
##olig
Olig
oligo
oligodend
oligodendrocyte
oligomer
oligomeric
oligomerization
oligomers
oligonucle
oligonucleotide
oligosaccharide
##olimus
##olin
##oline
##olinergic
##olines
##oling
##olinium
##oliosis
##olip
##olipase
##olipid
##olipids
##olipin
##olipoprotein
##olis
##olism
##olite
##olith
##olithic
##olitis
##olium
olive
##olization
##olk
##oll
##ollen
##ollic
##ollicular
##ollow
##olog
##ologic
##ological
##ologically
##ologies
##ologist
##ologists
##ologous
##ology
##olol
##olon
##olone
##olones
##olor
##ols
##oltz
##oltzmann
##oluble
##olumbar
##oluminescence
##oluminescent
##olus
##olute
##olution
##olve
##olved
##olves
##olving
##oly
##olyb
##olyl
##olym
##olymer
##olymerization
##olymers
##olymph
##olys
##olysin
##olysis
##olytic
##olytica
##olyticus
om
##om
Om
OM
##OM
##oma
##omain
##omal
##oman
##omandibular
##omann
##omas
##omat
##omated
##omatic
##omatis
##omatoid
##omatosis
##omatous
##omavirus
##omb
##ombic
##omby
##ome
##omed
##omedial
omega
##omegal
##omegalovirus
##omegaly
##omel
##omen
##omening
##omer
##omerase
##omere
##omeres
##omeric
##omerization
##omers
##omerular
##omes
##omestic
##omet
##ometabolic
##ometal
##ometallic
##ometer
##ometers
##ometh
##omethane
##omething
##omethyl
##omethylation
##ometric
##ometrically
##ometry
##omial
##omib
##omic
##omical
##omically
omics
##omics
##omide
##omies
##ominant
##oming
##omiting
##omized
##omm
##omn
##omnia
##omod
##omol
##omolgus
##omon
##omonas
##omorph
##omorphic
##omotion
##omotor
##omp
Omp
##ompan
##ompass
##omplex
##omponent
##ompos
##oms
##omus
##omy
##omyc
##omyces
##omycete
##omycetes
##omycin
##omycosis
##omyel
##omyelitis
##omyosin
##omyositis
on
##on
On
ON
##ON
##ón
##ona
##onad
##onal
##onance
##onant
##onary
##onas
##onasal
##onat
##onatal
##onate
##onated
##onates
##onation
##onavir
##onazole
onc
##onc
Onc
once
Once
oncogene
oncogenes
oncogenesis
oncogenic
oncologic
oncological
oncologists
oncology
Oncology
oncolytic
oncoprotein
Oncor
Oncorhynchus
##ond
##ondin
##ondon
##onduc
##ondyl
##ondylar
one
##one
One
##onecrosis
##oned
##onegative
##onella
##oneph
##onephritis
##onergic
ones
##ones
##oneu
##oney
##onf
##onfig
##ong
##onge
##onged
##ongevity
ongoing
##ongru
##ongue
##oni
##onia
##onian
##oniazid
##onic
##onical
##onically
##onide
##onin
##onine
##oning
##onins
##onis
##onit
##onite
##onitoring
##onitrile
##onium
online
Online
only
##only
Only
##onn
##ono
##onography
##onoids
##onol
##onom
##onomic
##onomous
##onomy
##onor
##onous
##ons
##onses
onset
##onset
##onsin
##onstr
##onstric
##onstruc
##onstruct
##onstruction
ont
##ont
Ont
##ontal
##ontally
##ontan
Ontario
##ontin
##ontine
##ontitis
##ontium
onto
ontogeny
ontology
Ontology
##ontrol
##ontrolled
##onucl
##onucle
##onuclear
##onuclease
##onus
##onv
##onvolution
##onvuls
##ony
##onyl
##onym
##onymous
##oo
oocysts
oocyte
oocytes
##ood
##ool
##ools
##oon
##oons
##oor
##oors
##oot
##ooth
op
##op
Op
OP
##OP
##opa
opac
##opaedic
##opancreat
##opancreatography
##opar
##oparas
##opath
##opathic
##opathies
##opathogenesis
##opathogenic
##opathologic
##opathological
##opathologically
##opathology
##opathy
##ope
##opec
##opecia
##oped
##opedic
open
##open
Open
opened
##openem
##openia
##openic
opening
##opening
opens
##opent
##opeptidase
##opeptide
##opeptides
oper
##oper
Oper
##operable
operate
operated
##operated
operates
operating
operation
##operation
operational
operations
operative
##operative
##operatively
operator
operators
##operfusion
##operidol
##operiod
operon
##operoxidase
##opes
##opex
##opexy
OPG
##oph
##ophag
##ophage
##ophageal
##ophages
##ophagy
##opharmac
##opharmaceutical
##opharmaceuticals
##opharyngeal
##opharynx
##ophe
##opheles
##ophen
##ophene
##ophenol
##ophenone
##ophenyl
##opherol
##ophil
##ophila
##ophile
##ophiles
##ophilia
##ophilic
##ophilicity
##ophilin
##ophilum
##ophilus
##ophor
##ophora
##ophore
##ophores
##ophosph
##ophosphamide
##ophosphate
ophthal
##ophthal
Ophthal
ophthalm
ophthalmic
##ophy
##ophyll
##ophylline
##ophys
##ophysi
##ophysical
##ophysics
##ophysiological
##ophyt
##ophyte
##ophytes
##ophytic
opi
##opia
##opian
##opic
##opically
##opid
##opidogrel
opin
##oping
opinion
opinions
opioid
##opioid
Opioid
opioids
##opl
##oplanin
##oplankton
##oplasia
##oplasm
##oplasma
##oplasmic
##oplasmosis
##oplast
##oplastic
##oplasts
##oplasty
##oplatin
##ople
OPN
##opodia
##opoi
##opoiesis
##opoietic
##opoietin
##opol
##opoly
##opolymer
##opolysaccharide
##opolysaccharides
##opontin
##opor
##oporous
##oporphyrin
##opos
##oposide
##opositive
##opositivity
opp
Opp
opportun
Opportun
opportunistic
opportunities
opportunity
oppos
opposed
opposing
opposite
##opram
##opre
##oprecipitation
##opres
##opress
##opressin
##oprevalence
##oprid
##oprim
##opro
##oprocess
##oprol
##oproliferative
##oprop
##opropane
##oprophylaxis
##opropyl
##oprost
##oprot
##oprote
##oprotection
##oprotective
##oprotein
##oproteins
##oproterenol
##ops
##opsin
##opsis
##opsy
opt
##opt
Opt
##opter
##optera
##opterin
optic
##optic
optical
##optical
Optical
optically
optics
optim
##optim
Optim
optimal
##optimal
Optimal
optimally
optimisation
optimised
optimization
Optimization
optimize
optimized
optimizing
Optimizing
optimum
option
options
opto
optoelectronic
##opulation
##opulations
##opulmonary
##opurine
##opus
##opy
##opyran
##opyranosyl
##opyridine
##oquin
##oquinone
or
##or
Or
##Or
OR
##OR
##ora
##oracic
##oradi
##orafenib
##orage
oral
##oral
Oral
##oralis
orally
orange
##oraph
##orate
##orated
##oration
##oratory
##orax
##orb
##orbable
##orbed
##orbent
##orbid
##orbidity
orbit
##orbit
orbital
##orbital
orbitals
orbitofrontal
##orbol
orch
orche
orchestr
ord
##ord
##ordable
##ordan
##ordance
##ordant
order
##order
ordered
##ordered
ordering
orders
##orders
ordinary
##ordinate
##ording
##ords
ore
##ore
##orea
##oreactive
##oreactivity
##oreal
##orect
##orectal
##ored
##oredoxin
##oreg
##orel
##orella
##oremediation
##oren
##orene
##orepine
##orepinephrine
##orer
##ores
##orescence
##orescent
##oresis
##oresistance
##oresistant
##oresp
##orespiratory
##orespon
##oresponsive
##orest
##oret
##oretic
##oretin
orexin
##orf
ORF
ORFs
##org
organ
##organ
Organ
organelle
organelles
organic
##organic
Organic
organisation
organisations
organism
organisms
##organisms
organization
##organization
Organization
organizational
organizations
organize
organized
##organized
organizing
organochlor
organochlorine
organogenesis
organophosph
organs
##orghum
##orh
ori
##ori
Ori
##orial
##oric
##oriconazole
orient
##orient
oriental
orientation
##orientation
orientations
oriented
##oriented
orienting
##ories
orific
orifice
orig
Orig
origin
##origin
original
originally
originate
originated
originates
originating
origins
##orill
##orin
##oring
##oris
##orith
##ority
##ork
##orld
##orm
##ormal
##ormonal
##ormone
##ormous
orn
##orn
##oro
orofacial
oroph
oropharyngeal
##orous
##orp
##orph
orphan
##orphic
##orphin
##orphine
##orphism
##orphisms
##orphous
##orphy
##orphyrin
##orpor
##orporeal
##orption
##orptive
ORR
##orrect
##orrh
##orrhage
##orrhagic
##orrhiz
##orrhizal
##ors
ORs
##orsal
##orse
##ort
##ORT
##ortal
##ortality
##orted
##ortem
##orter
##orters
orth
##orth
Orth
##orthern
ortho
orthodontic
orthogonal
ortholog
orthologous
orthologs
orthopaedic
orthopedic
orthostatic
orthotopic
##orthy
##ortic
##ortin
##orting
##ortion
##ortions
##ortium
##ortive
##orts
##ortun
##ortunately
##ortus
##orubicin
##orum
##orus
##orvastatin
##ory
Ory
##orylation
oryz
Oryza
oryzae
os
##os
##oS
Os
##Os
OS
##OS
##osa
OSA
##osacchar
##osaccharide
##osaccharides
##osacral
##osahexa
##osahexaenoic
##osaic
##osal
##osamine
##osan
##osap
##osapenta
##osapentaenoic
##osarcoma
##osarcomas
OSAS
##osc
OSCC
oscill
Oscill
oscillating
oscillation
oscillations
oscillator
oscillators
oscillatory
##osclerosis
##oscop
##oscope
##oscopic
##oscopy
##ose
##osecond
##osed
##oselective
##oselectivities
##oselectivity
oseltamivir
##osen
##osensi
##osensitive
##osensitivity
##osensory
##oserine
##oses
##osexual
##osh
##osi
##osidase
##oside
##osides
##osilic
##osin
##osine
##osing
##osion
##osis
##osities
##osition
##ositis
##ositol
##osity
##osive
osm
##osm
osmol
osmotic
##osmotic
##osms
##osocial
##osol
##osols
##osom
##osoma
##osomal
##osome
##osomes
##osomiasis
##osp
##ospasm
##ospatial
##ospec
##ospecific
##osperm
##ospermia
##osperms
##osph
##osphere
##ospheres
##ospinal
##ospital
##ospor
##ospora
##ospores
##osporidium
##osporium
oss
##oss
osseointeg
osseous
##osseous
ossification
##ossyp
ost
##ost
##ostaining
##ostasis
##ostat
##ostatic
##ostatin
oste
##oste
Oste
##osteal
osteoarthritis
Osteoarthritis
osteoblast
osteoblastic
osteoblasts
osteoc
osteocalcin
osteochond
osteochondral
osteoclast
osteoclasts
osteogenesis
osteogenic
osteomyelitis
osteonecrosis
osteopontin
osteopor
Osteopor
osteoporosis
Osteoporosis
osteoporotic
osteosarcoma
osteotomy
##oster
##osteric
##osterol
##osterone
##ostic
##ostics
##ostin
##ostom
##ostomy
##ostosis
##ostr
##ostruct
##ostructures
##ostrum
##osts
##osulf
##osulfan
##osum
##osupp
##osure
##osurgery
##osus
##osw
##osy
##osyl
##osylated
##osylation
##osyltransferase
##osym
##osyn
##osynt
##osynthesis
##osynthetic
##osystem
##osystems
ot
##ot
Ot
OT
##OT
##ota
OTA
##otactic
##otal
##otation
OTC
##ote
##otecan
##otechn
##otechnology
##oted
##otemporal
##otensin
##oter
##otericin
##otes
##oth
##othal
##othe
##othel
##othelial
##othelioma
other
##other
Other
##otherap
##otherapeutic
##otherapeutics
##otherapies
##otherapy
##othermal
##othermic
others
otherwise
##othi
##othione
##otho
##othorax
##othy
##oti
##otiana
##otic
##otics
##otid
##otide
##otides
##otile
##otin
##otine
##oting
##otinib
##otion
##otional
otitis
##oto
##otocin
##otom
##otomies
##otomy
##otonic
##otonin
##otope
##otopic
##otor
##otox
##otoxic
##otoxicity
##otoxin
##otoxins
##otrac
##otrans
##otransduction
##otransfer
##otransferase
##otransformation
##otransplantation
##otrexate
##otri
##otrich
##otrip
##otripsy
##otron
##otrop
##otroph
##otrophic
##otrophin
##otrophs
##otropic
##otropical
##otropin
##otropy
##otryp
##otrypsin
##ots
##ott
##otted
##ottic
##otting
##otub
##otubes
##otus
OTUs
##otyl
##otyp
##otype
##otyped
##otypes
##otypic
##otypical
##otypically
##otyping
ou
##ou
##OU
##oub
##oud
##ough
##ought
##ouin
##oul
##ould
##oulder
##ouling
##oun
##ound
##OUND
##ounds
##oung
##ount
##ountain
##ounted
##ounting
##ounts
##oupl
##oupled
##oupling
our
##our
Our
##ouracil
##oural
##ource
##ources
##oured
##ourinary
##ouring
##ourished
##ours
##ourse
##ous
##ouse
##ouses
##ously
##oustic
out
##out
Out
outbreak
outbreaks
outc
outcome
Outcome
outcomes
Outcomes
outd
outdoor
outer
outflow
outgrowth
##outh
##outheast
##outheastern
##outhern
outl
outlet
outline
outlined
outlines
outpatient
outpatients
outper
outperformed
outperforms
output
outputs
outreach
##outs
outside
outstanding
outward
##oux
ov
##ov
##oV
Ov
OV
##OV
##ova
OVA
##OVA
##ovable
##ovaginal
oval
##oval
ovalbumin
##ovar
ovari
ovarian
Ovarian
ovariectomized
ovaries
##ovars
ovary
##ovascular
ove
##ove
##ovember
##ovement
##oventricular
over
##over
Over
overactive
overall
Overall
overcome
overcomes
overcoming
overd
overdose
##overed
overestim
overex
##overex
Overex
overexpressed
overexpressing
##overexpressing
overexpression
Overexpression
overgrowth
overl
overlap
overlapped
overlapping
overlaps
overlo
overload
overlooked
overlying
##overn
overnight
overproduction
overt
##overty
overuse
overview
overw
overweight
overwhel
overwhelming
##overy
##oves
ovi
##ovi
##ovial
ovid
ovine
##ovine
oviposition
##ovir
##ovirus
##oviruses
##ovis
##ovol
##ovsk
ovulation
##ovulatory
OVX
ow
##ow
##owed
##owel
##ower
##owered
##owever
owing
##owing
Owing
##owl
##owled
##owledge
own
##own
owners
ownership
##ows
ox
##ox
Ox
##Ox
OX
##OX
OXA
##oxacin
oxal
##oxal
oxalate
oxaliplatin
##oxamine
##oxane
##oxazole
##oxel
##oxetine
##oxia
##oxib
##oxic
##oxication
##oxicillin
##oxicity
oxid
##oxid
Oxid
oxidant
##oxidant
oxidants
oxidase
##oxidase
oxidases
oxidation
##oxidation
Oxidation
oxidative
##oxidative
Oxidative
oxide
##oxide
Oxide
oxides
##oxides
oxidized
oxidizing
##oxidizing
oxidore
oxidoreductase
##oxif
##oxifen
##oxin
##oxine
##oxins
oxo
##oxo
##oxon
##oxone
oxy
##oxy
##oxyc
##oxyg
oxygen
##oxygen
Oxygen
oxygenase
##oxygenase
##oxygenases
oxygenated
oxygenation
##oxygenation
##oxyguanosine
##oxyl
##oxylin
##oxym
##oxyn
##oxynucle
##oxyp
##oxyphenyl
##oxys
oxyt
oxytocin
##oy
##oya
##oyl
##oylation
##oys
oyster
oz
##oz
##ozapine
##ozo
##ozoa
##ozoan
##ozoite
##ozoites
##ozol
##ozolomide
ozone
##ozotocin
##ozyg
##ozygous
##ozyme
p
##p
P
##P
##ṕ
##ṗ
##Ṗ
pa
##pa
##pA
Pa
##Pa
PA
##PA
PAA
pac
Pac
##Pac
PAC
PACAP
pace
pacem
pacemaker
Pacific
pacing
pack
##pack
package
packaged
packages
packaging
packed
packing
paclitaxel
pad
PAD
paddy
paediatric
Paediatric
PAF
Pag
##PAGE
PAH
PAHs
PAI
paid
pain
##pain
Pain
painful
painless
painting
pair
##pair
paired
pairing
pairs
pairwise
Pak
PAK
Pakistan
pal
##pal
Pal
PAL
palatal
palate
pale
pall
Pall
palladium
palliative
Palliative
palm
palmit
palmitate
palp
palsy
PAM
##PAM
pan
##pan
Pan
PAN
pancre
pancreas
pancreat
pancreatectomy
pancreatic
Pancreatic
pancreatitis
pand
pandemic
panel
Panel
panels
panic
pant
Pant
##panze
pap
Pap
PAP
paper
papers
papill
papillary
papilloma
papillomavirus
par
##par
Par
PAR
##PAR
para
Para
parac
paracetamol
paracrine
parad
Parad
paradigm
paradigms
paradox
paradoxical
paraffin
parag
##parag
paragangli
paral
parallel
##parallel
Parallel
paralleled
parallels
paralog
paralysis
param
paramagnetic
##paramagnetic
paramet
##paramet
Paramet
parameter
##parameter
parameters
Parameters
parametric
##parametric
paramount
paran
paraneoplastic
paraple
paraquat
paras
##paras
Paras
parasit
parasite
##parasite
parasites
parasitic
##parasitic
parasitism
parasitoid
parasympathetic
parat
parathyroid
##parathyroidism
parav
paraventricular
##pared
paren
Paren
parench
parenchyma
parenchymal
parent
##parent
Parent
parental
Parental
parenteral
parenting
parents
Parents
pari
parietal
##parietal
parity
park
Park
parkinson
Parkinson
parkinsonism
parotid
##parous
parox
paroxysmal
PARP
pars
parsim
part
##part
Part
##partate
parthen
parti
partial
Partial
partially
partic
##partic
Partic
particip
Particip
participant
participants
Participants
participate
participated
participates
participating
participation
Participation
participatory
particle
##particle
Particle
particles
particular
Particular
particularly
Particularly
particulate
##partite
partition
partitioning
partly
partner
partners
partnership
partnerships
parts
##parts
##partum
partur
parturition
parv
pas
PAs
PAS
pass
##pass
Pass
passage
passages
passed
passi
passing
passive
passively
past
Past
paste
pastoris
pasture
pat
##pat
Pat
PAT
patch
patches
patell
patellar
patellofemoral
patency
patent
patents
patern
paternal
path
##path
Path
##pathetic
pathogen
##pathogen
pathogenesis
pathogenetic
pathogenic
##pathogenic
pathogenicity
pathogens
pathologic
pathological
##pathological
Pathological
pathologically
pathologies
pathologists
pathology
Pathology
pathophysi
pathophysiology
paths
pathw
pathway
Pathway
pathways
Pathways
pati
##pati
Pati
patient
##patient
Patient
patients
##patients
Patients
##pation
pattern
##pattern
Pattern
patterned
patterning
patterns
Patterns
pauc
paucity
Paulo
pave
paw
Pax
PAX
pay
payment
Pb
##Pb
PB
##PB
PBC
PBD
PBDEs
PBL
PBM
PBMC
PBMCs
PBP
PBS
pc
##pc
Pc
##Pc
PC
##PC
PCa
PCA
PCB
PCBs
PCC
PCD
PCDD
PCE
PCI
PCL
PCM
PCNA
PCOS
PCP
PCR
##PCR
PCs
PCS
PCSK
PCT
PCV
Pd
##Pd
PD
##PD
PDA
PDAC
PDB
PDE
PDGF
PDGFR
PDI
PDL
PDMS
PDT
PDZ
pe
##pe
Pe
PE
##PE
pea
##pea
peak
##peak
Peak
peaked
peaks
pean
peanut
pear
Pearson
peat
pec
##pec
PEC
##pecially
##pecific
pect
##pected
pectin
##pective
##pectives
peculi
peculiar
ped
##ped
Ped
PED
pedest
pediatric
Pediatric
pedic
pedicle
pedig
pedigree
peel
peer
peers
peg
PEG
##PEG
pegylated
PEGylated
PEI
##PEI
pel
Pel
pell
pellet
pellets
pelvic
Pelvic
pelvis
pem
pemphig
pen
##pen
Pen
penal
penalty
pend
##pene
##penes
penet
##penet
penetrance
penetrate
penetrating
##penetrating
penetration
penic
Penic
penicillin
Penicillium
penile
Penins
Peninsula
penis
pens
pent
##pent
Pent
penta
PEO
people
People
pep
Pep
PEP
pepper
pepsin
pepti
peptic
peptid
peptidase
peptide
##peptide
Peptide
peptides
Peptides
peptidoglycan
##peptin
per
##per
Per
##Per
PER
##perature
Perc
perce
perceive
perceived
Perceived
percent
percentage
percentages
percenti
percentile
perception
Perception
perceptions
Perceptions
perceptual
perchlor
perchlorate
percol
percolation
percutaneous
Percutaneous
peren
perennial
perf
perfect
perfectly
perfluor
perfluoro
perfor
perforated
perforation
perforator
perform
performance
##performance
Performance
performances
performed
performing
performs
perfring
perfringens
perfused
perfusion
##perfusion
##perg
perhaps
peri
Peri
peria
peric
pericardi
pericardial
pericytes
perin
Perin
perinatal
perine
perineal
period
##period
Period
periodic
periodically
Periodicals
periodicity
periodontal
periodontitis
periods
perioperative
Perioperative
perip
peripher
peripheral
Peripheral
periphery
peripl
periplasmic
periprosthetic
##peritone
peritoneal
##peritoneal
##peritoneally
peritonitis
periv
perivascular
perm
##perm
Perm
perman
permanent
permanently
perme
##perme
permeability
permeable
##permeable
permeation
permissive
permit
permits
permitted
permitting
##perms
##perometric
perone
perovsk
perovskite
perox
Perox
peroxid
peroxidase
peroxidation
peroxide
peroxis
peroxisome
peroxyn
peroxynitrite
perp
perpendicular
perpet
pers
##pers
Pers
persist
persisted
persistence
persistent
Persistent
persistently
persisting
persists
person
##person
Person
personal
##personal
Personal
personality
Personality
personalized
personnel
persons
perspective
Perspective
perspectives
Perspectives
pert
##pert
Pert
pertaining
pertin
pertinent
perturb
perturbation
perturbations
perturbed
pertussis
Peru
pervasive
##pes
PES
pest
pestic
pesticide
pesticides
pestis
pests
pet
Pet
PET
##PET
petroleum
##pf
Pf
PF
##PF
PFC
##PFC
PFGE
PFOA
PFOS
PFS
pg
Pg
PG
##PG
PGC
PGD
PGE
PGF
ph
##ph
pH
##pH
Ph
##Ph
PH
##PH
##pha
Pha
PHA
##phae
phag
##phag
phage
phages
##phagia
phagocyt
phagocytes
phagocytic
phagocytosis
phal
##phal
##phan
phant
phantom
phantoms
pharm
pharmac
##pharmac
Pharmac
pharmaceutical
Pharmaceutical
pharmaceuticals
pharmacist
pharmacists
pharmacodynamic
pharmacokine
pharmacokinetic
Pharmacokinetic
pharmacologic
pharmacological
##pharmacological
Pharmacological
pharmacology
pharmacophore
pharmacotherapy
pharmacy
pharyngeal
phase
##phase
Phase
phases
phasic
##phasic
PHB
PHD
phe
Phe
##Phe
phen
##phen
Phen
phenanth
##phenanth
phenanthrene
##phenidate
phenol
##phenol
phenolic
phenolics
phenology
phenols
phenomen
phenomena
phenomenon
phenotype
##phenotype
phenotypes
phenotypic
Phenotypic
phenotypically
phenotyping
phenyl
##phenyl
phenylalanine
phenylephrine
pherom
pheromone
##phi
##phig
phil
Phil
Philipp
##philis
philos
philosoph
philosophy
phloem
Pho
phon
##phon
phone
##phone
phonological
phonon
##phor
##phos
##phosate
phosph
##phosph
Phosph
phosphatase
##phosphatase
phosphatases
phosphate
##phosphate
phosphates
phosphatid
phosphatidyl
##phosphatidyl
phosphine
##phosphine
phospho
phosphodies
phospholipase
phospholipid
##phospholipid
phospholipids
phosphor
##phosphor
phosphorus
phosphoryl
phosphorylated
##phosphorylated
phosphorylates
phosphorylation
##phosphorylation
Phosphorylation
phot
##phot
Phot
photo
Photo
photoacoustic
photoc
photocatalyst
photocatalytic
photochemical
photocurrent
photod
photodet
photodynamic
photoelectron
photographs
photoinduced
photolysis
photon
##photon
photonic
photons
photoperiod
photophysical
photore
photoreceptor
photoreceptors
photosensi
photosensiti
photosensitizer
photosynthesis
photosynthetic
photosystem
photothermal
photovol
photovolta
photovoltaic
##phrin
##phrine
phthal
##phthal
phthalate
##phthe
##phy
Phy
phyl
##phyl
Phyl
phyla
phyloge
phylogenetic
Phylogenetic
phylogeny
phylum
phys
##phys
Phys
physi
Physi
physical
Physical
physically
physician
Physician
physicians
Physicians
physico
physicochemical
physics
physiologic
physiological
Physiological
physiologically
physiology
physiotherapy
phyt
Phyt
phyto
phytochemical
phytochemicals
phytoh
phytoplankton
pi
##pi
Pi
PI
##PI
pic
##pic
Pic
PIC
Pichia
pick
picosecond
picture
pictures
##picuous
pie
piece
pieces
piezo
piezoelectric
pig
##pig
Pig
pige
pigeons
piglets
pigment
pigmentation
pigmented
pigments
pigs
PIK
pil
Pil
pill
pilot
Pilot
pin
##pin
Pin
PIN
pine
##pine
pineal
##ping
##pins
Pinus
pioglitazone
pione
pip
PIP
pipeline
piper
##piper
pir
##pir
##pirical
pit
Pit
pitch
##pite
pitfalls
pituitary
##pituitary
piv
pivotal
pix
pixel
pixels
PJ
pK
PK
##PK
PKA
PKC
PKD
PKR
pl
##pl
Pl
##Pl
PL
##PL
pla
PLA
##PLA
plac
place
##place
placebo
placed
placement
##placement
placent
placenta
placental
places
placing
plague
plain
plan
Plan
planar
##planar
plane
##plane
planes
plank
planktonic
planned
##planned
planning
plans
plant
##plant
Plant
plantar
plantarum
##plantation
plants
##plants
Plants
plaque
plaques
plas
##plasia
plasm
##plasm
Plasm
plasma
##plasma
Plasma
plasmac
plasmid
plasmids
plasmin
plasminogen
Plasmodium
plasmon
plasmonic
plastic
##plastic
Plastic
plasticity
plastid
plat
Plat
plate
##plate
Plate
plateau
Plateau
platelet
##platelet
Platelet
platelets
plates
platform
platforms
##platin
plating
platinum
plaus
plausible
play
##play
played
player
players
playing
plays
PLC
PLD
ple
##ple
Ple
pleasant
##pleasant
plei
pleiotropic
Pleistocene
pleomorphic
##pler
##ples
##plet
##plete
plethora
pleu
pleural
plex
##plex
plexus
PLGA
##pliance
##plic
##plicate
##plicated
##plicates
##plicating
##plication
##plications
##plicative
##plicit
##plicity
##plied
##pling
PLLA
##ploid
##ploidy
plot
plots
##ploy
##ployment
##ploys
PLP
PLS
plug
plum
pluripot
pluripotency
pluripotent
plus
##plus
Plus
##ply
pm
##pm
pM
Pm
PM
##PM
PMA
PMF
PMI
PML
PMMA
PMN
pmol
PMS
PMT
pN
PN
##PN
PNA
PND
pneum
Pneum
pneumococcal
pneumon
pneumonia
pneumoniae
pneumophila
pneumothorax
PNI
PNP
PNS
po
##po
Po
PO
##PO
POC
pocket
pockets
pod
Pod
POD
podocyte
podocytes
point
##point
Point
pointed
pointing
points
##points
poison
poisoning
Poisson
pol
##pol
Pol
Poland
polar
##polar
Polar
polarity
polarization
polarized
##polarized
pole
poli
polic
Polic
police
policies
policy
Policy
policym
polio
Polish
political
poll
##poll
pollen
pollination
pollinators
pollut
pollutant
pollutants
polluted
pollution
poly
##poly
Poly
polyacrylamide
polyaden
polyamine
polyc
Polyc
polychlorinated
polyclonal
polycrystalline
polycyclic
polycystic
polyelectrolyte
polyethylene
polyg
polyke
polyketide
polym
Polym
polymer
##polymer
Polymer
polymerase
##polymerase
Polymerase
polymerases
polymeric
polymerization
polymers
polymorph
polymorphic
polymorphism
Polymorphism
polymorphisms
Polymorphisms
polymy
polyn
polyneuropathy
polynomial
polyomavirus
polyp
Polyp
polypeptide
polypeptides
polyph
polyphen
polyphenol
polyphenolic
polyphenols
polyposis
polypropylene
polyps
polys
polysaccharide
polysaccharides
polysomn
polystyrene
polyt
polyunsaturated
polyurethane
polyvinyl
pom
pon
##pon
PON
##ponade
pond
ponds
##ponectin
##ponent
##ponential
##ponents
pool
pooled
pools
poor
##poor
Poor
poorer
poorly
pop
Pop
POP
popl
poplar
popular
popularity
populated
population
##population
Population
populations
Populations
Populus
por
##por
Por
##pora
##poral
##porary
porcine
Porcine
pore
pores
pork
porosity
porous
porph
##porph
Porphy
porphyrin
porphyrins
port
##port
Port
portable
portal
##porter
portion
portions
##ports
Portug
Portugal
Portuguese
##porum
pos
##pos
Pos
POS
##posable
##posal
pose
##pose
posed
##posed
poses
##poses
##posing
position
##position
Position
positional
positioned
positioning
positions
##positions
positive
##positive
Positive
positively
positives
positivity
positron
##posity
##posium
possess
possessed
possesses
possessing
possi
possibilities
possibility
possible
Possible
possibly
post
##post
Post
poster
posterior
##posterior
Posterior
postex
posth
postm
postmenopausal
postmortem
postnatal
postoperative
Postoperative
postoperatively
postp
postpartum
postprandial
posts
postsurgical
postsynaptic
posttraumatic
posttreatment
postulate
postulated
postural
posture
postures
##posure
pot
##pot
Pot
potassium
potato
potency
potent
potenti
potential
##potential
Potential
potentially
potentials
potentiate
potentiated
potentiates
potentiation
potently
pouch
poul
poultry
poverty
pow
powder
powders
power
##power
Power
powered
powerful
powers
##pox
pp
##pp
Pp
PP
##PP
PPAR
PPARgamma
ppb
PPC
PPD
##pped
PPh
PPI
##pping
PPIs
##pple
ppm
##ppoc
##ppocamp
##ppocampal
PPP
PPR
PPV
PQ
pr
##pr
Pr
##Pr
PR
##PR
pra
Pra
prac
Prac
practic
##practic
practical
Practical
practically
practice
##practice
Practice
practiced
practices
Practices
practicing
practition
practitioner
practitioners
pragmatic
PRC
pre
##pre
Pre
##pread
preadip
prec
##prec
Prec
preca
precancer
preced
precede
preceded
precedes
preceding
precipit
precipitate
precipitated
precipitation
precise
precisely
precision
precl
preclinical
Preclinical
precon
preconditioning
precur
precursor
precursors
pred
##pred
Pred
predation
predator
predators
predatory
predefined
predic
##predic
Predic
predict
predictability
predictable
predicted
predicting
Predicting
prediction
Prediction
predictions
predictive
Predictive
predictor
predictors
Predictors
predicts
predis
predispose
predisposed
predisposing
predisposition
prednis
prednisolone
##prednisolone
prednisone
predom
predominance
predominant
predominantly
preeclampsia
preexisting
pref
prefer
preferable
preferably
preference
preferences
preferential
preferentially
preferred
preformed
prefrontal
preg
pregn
##pregn
Pregn
pregnancies
pregnancy
Pregnancy
pregnant
##pregnant
Pregnant
##prehen
prehospital
preimplantation
Prel
prelim
preliminary
Preliminary
prem
Prem
premature
prematurity
premenopausal
premotor
pren
Pren
prenatal
Prenatal
preoperative
Preoperative
preoperatively
prep
PrEP
prepar
Prepar
preparation
Preparation
preparations
prepare
prepared
##prepared
preparedness
preparing
prepubertal
prerequis
prerequisite
pres
##pres
Pres
preschool
prescrib
prescribed
prescribing
prescription
prescriptions
presence
Presence
present
##present
Present
presentation
##presentation
Presentation
presentations
presented
presenting
##presenting
presently
presents
preserv
preservation
preserve
preserved
preserves
preserving
##preserving
press
##press
Press
##pressed
pressing
##pressing
##pression
##pressive
pressur
pressure
##pressure
Pressure
pressures
presum
presumably
presumed
presumptive
presynaptic
preterm
Preterm
pretreated
pretreatment
Pretreatment
prev
prevailing
prevalence
Prevalence
prevalent
prevent
Prevent
preventable
preventative
prevented
preventing
prevention
Prevention
preventive
Preventive
prevents
previous
Previous
previously
Previously
prey
pri
##pri
Pri
PRI
pric
price
prices
##pril
prim
##prim
Prim
primarily
primary
Primary
primate
primates
prime
primed
primer
primers
priming
primitive
primor
primordial
##prin
princ
##princ
Princ
princip
principal
Principal
principally
principle
principles
##principles
print
##print
printed
##printed
printing
prion
prior
Prior
priori
prioriti
priorities
prioritization
prioritize
priority
##prise
##prising
##prisingly
prism
prison
prist
pristine
priv
privacy
private
privi
PRL
pro
##pro
Pro
##Pro
PRO
proactive
proapoptotic
prob
Prob
probabilistic
probabilities
probability
probable
probably
probe
##probe
probed
probes
probing
Probing
probiotic
probiotics
proble
Proble
problem
problematic
problems
Problems
##proBNP
proc
proce
proced
Proced
procedural
procedure
procedures
proceed
proceeded
proceeding
proceeds
process
##process
Process
processed
##processed
processes
processing
##processing
Processing
prod
prodrug
prodrugs
produc
produce
produced
##produced
producer
producers
produces
producing
##producing
product
##product
production
##production
Production
productive
##productive
productivity
products
##products
Products
prof
##prof
Prof
profession
professional
##professional
Professional
professionals
professions
proficiency
profil
Profil
profile
Profile
profiles
profiling
Profiling
profound
profoundly
prog
Prog
progen
progenitor
##progenitor
progenitors
progeny
progesterone
progn
Progn
prognosis
Prognosis
prognostic
Prognostic
program
##program
Program
programme
Programme
programmed
programmes
programming
programs
progress
Progress
progressed
progresses
progressing
progression
Progression
progressive
Progressive
progressively
prohibit
proinflammatory
proj
project
Project
projected
projection
projections
projects
prokary
prokaryotes
prokaryotic
prol
##prol
Prol
prolactin
prolapse
prolif
proliferate
proliferating
proliferation
Proliferation
proliferative
##proliferative
proliferator
proline
prolong
prolongation
prolonged
Prolonged
prom
##prom
Prom
promin
prominent
prominently
promisc
promise
promises
promising
promo
promot
promote
promoted
##promoted
promoter
promoters
promotes
promoting
##promoting
promotion
prompt
prompted
promptly
promyel
promyelocytic
pron
prone
##prone
prono
pronounced
proof
prop
##prop
Prop
propag
propagate
propagated
propagating
propagation
propensity
proper
Proper
properly
properties
Properties
property
prophyl
prophylactic
prophylaxis
propionate
propofol
propolis
propor
proportion
proportional
proportions
propos
proposal
proposals
propose
proposed
proposes
propranolol
propria
proprio
proprioceptive
propyl
##propyl
propylene
pros
prosocial
prosp
prospect
prospective
Prospective
prospectively
prospects
prost
Prost
prostagland
prostaglandin
prostate
Prostate
prostatectomy
prostatic
prostheses
prosthesis
prosthetic
prot
##prot
Prot
prote
##prote
Prote
proteas
protease
proteases
proteasomal
proteasome
##proteasome
protect
protected
##protected
protecting
protection
Protection
protective
##protective
Protective
protects
protein
##protein
Protein
proteinase
proteins
##proteins
Proteins
proteinuria
proteoglycan
proteoglycans
proteolysis
proteolytic
proteome
proteomes
proteomic
Proteomic
proteomics
Proteomics
prothrombin
proto
protoc
protocol
Protocol
protocols
proton
Proton
protonated
protonation
protons
protoplasts
prototype
prototypical
protozoa
protozoan
protr
protrusion
prov
Prov
prove
proved
proven
##proven
proves
provid
Provid
provide
provided
provider
providers
provides
providing
province
Province
provinces
proving
provision
provoked
proxim
proximal
proximity
proxy
PrP
PRP
PRRSV
prur
pruritus
ps
##ps
pS
Ps
##Ps
PS
##PS
PsA
PSA
PSC
##PSC
##PSCs
PSD
pseud
Pseud
pseudo
Pseudo
pseudoaneurys
pseudoaneurysm
Pseudomonas
pseudop
PSI
PSII
psor
Psor
psoriasis
Psoriasis
psoriatic
PSP
PSS
##PSS
Psyc
psych
##psych
Psych
psychiat
psychiatric
Psychiatric
psychiatrists
psychiatry
psycho
psychoactive
psychological
Psychological
psychology
psychometric
psychomotor
psychopathology
psychos
psychosis
psychosocial
Psychosocial
psychotherapy
psychotic
psychotropic
PsycINFO
pt
##pt
pT
Pt
##Pt
PT
##PT
PTA
PTB
PTC
Ptd
PTEN
pter
Pter
PTH
##ptic
##ption
##ptions
##ptive
##ptom
##ptomatic
##ptomycin
##ptosis
##ptothe
##ptotic
PTP
##pts
PTS
PTSD
PTX
pu
Pu
PU
##PU
pub
Pub
puber
pubertal
puberty
publ
Publ
public
Public
publication
publications
publicly
published
Published
PubMed
puer
Puer
Puerto
PUFA
PUFAs
pul
Pul
pull
pulmonary
Pulmonary
pulp
puls
pulsatile
pulse
##pulse
Pulse
pulsed
pulses
pump
##pump
pumped
pumping
pumps
pun
punc
punct
puncture
punishment
pup
pupil
pups
pur
##pur
Pur
purch
pure
Pure
purely
purification
Purification
purified
purine
purinergic
purity
Purkinje
purp
purple
purpose
Purpose
purposes
purpura
purs
pursue
pursued
pursuit
pus
push
put
##put
Put
putamen
putative
putatively
putida
puzz
pv
Pv
PV
##PV
PVA
PVC
PVN
PVP
PW
##PW
PWV
PX
PXR
py
##py
Py
##Py
PY
pyel
pyl
pylori
pyogenes
pyr
##pyr
pyramidal
pyraz
pyrene
pyreth
pyrid
##pyrid
pyridin
pyridine
##pyridine
##pyridyl
##pyrifos
pyrim
pyrimidine
pyro
pyrolysis
pyrophosph
pyrophosphate
pyrosequencing
pyrrol
##pyrrol
pyrrole
pyruvate
PZ
q
##q
Q
##Q
##ĸ
QA
QC
##QC
QD
QDs
##QDs
QM
QoL
QOL
qPCR
##qPCR
QRS
qRT
QS
##QS
QSAR
QT
##QT
QTc
QTL
QTLs
qu
##qu
Qu
quad
##quad
quadrant
quadratic
quadriceps
quadrup
##quadrup
##quadruplex
quadrupole
quail
##quake
qual
Qual
qualified
qualitative
Qualitative
qualitatively
qualities
quality
##quality
Quality
quan
##quan
Quan
quanti
quantif
quantification
Quantification
quantified
quantify
quantifying
Quantifying
quantit
quantitation
quantitative
##quantitative
Quantitative
quantitatively
quantities
quantity
quantum
Quantum
quar
##quar
quarter
quartile
##quartile
quartz
quas
quasi
##quat
quaternary
que
##que
Que
Queens
##quef
quenc
quenched
quenching
##queous
##quer
quercetin
query
##ques
Ques
question
Question
questionable
questioned
questionnaire
Questionnaire
questionnaires
questions
##quet
##qui
quick
quickly
##quid
quies
quiescence
quiescent
quiet
##quilibrium
quin
##quin
##quine
quinoline
##quinoline
quinolone
quinone
##quinone
##quir
##quire
##quired
##quiry
##quis
##quisite
##quisition
quit
##quit
quite
##quito
##quity
quorum
quoti
r
##r
R
##R
##ŕ
##Ŕ
##ř
##Ř
##ŗ
##ṛ
##Ṛ
ra
##ra
##rA
Ra
##Ra
RA
##RA
rab
##rab
Rab
RAB
rabbit
rabbits
rabies
rac
##rac
Rac
RAC
race
##race
racem
racemic
races
##racheal
##rachi
##rachial
racial
Racial
##raconazole
##ract
##raction
##ractionated
##ractive
##ractory
##racycl
##racycline
##racyclines
rad
##rad
Rad
RAD
radi
##radi
Radi
radial
##radiated
radiation
##radiation
Radiation
radiative
radic
##radic
radical
##radical
Radical
radicals
##radient
radii
radio
radioactive
radioactivity
radiofrequency
radiograph
radiographic
radiographs
radiography
##radiol
radiolab
radiolabeled
radiologic
radiological
Radiological
radiologist
radiologists
radiology
radionucl
radionuclide
radionuclides
radiosensi
radiosurgery
radiotherapy
Radiotherapy
radiotrac
radius
Radix
radon
##rae
##raf
Raf
##RAF
##rafish
raft
##raft
rafts
##rag
##rage
RAGE
##rageenan
##ragmatic
##rague
##rai
##rail
rain
##rain
rainbow
##raindic
##raine
##rained
rainfall
##raining
##rais
##raisal
raise
raised
raises
raising
ral
##ral
Ral
##rally
##rals
ram
##ram
Ram
Raman
##ramatic
##ramb
##ramidal
##ramine
##ramolecular
ran
##ran
Ran
##rance
##rand
Rand
##randed
##randial
random
##random
Random
randomised
randomization
randomized
##randomized
Randomized
randomly
##rands
##rane
##ranean
##rang
range
##range
ranged
##ranged
##rangement
##rangements
ranges
ranging
##ranging
##rani
##ranial
rank
##rank
RANK
ranked
ranking
RANKL
##ranodal
##ranolol
##rans
##ransi
##rant
##rants
##ranuclear
rap
##rap
Rap
RAP
rapamycin
RAPD
rape
##rapeutic
##raph
##raphene
##raphic
##raphy
rapid
Rapid
rapidly
##rapped
##rapping
##rapy
##raq
RAR
rare
Rare
##rared
rarely
rarity
##ras
Ras
##Ras
RAS
##rase
rash
##rass
rat
##rat
Rat
##rata
rate
##rate
Rate
rated
##rated
##rater
rates
##rates
Rates
rather
Rather
rati
##rati
##ratic
rating
##rating
Rating
ratings
ratio
##ratio
Ratio
ratiometric
ration
##ration
rational
rationale
rationally
##rations
ratios
##rative
##ratives
##ratory
rats
Rats
##rav
##ravel
##raving
raw
##raw
RAW
##rax
ray
##ray
Ray
Rayleigh
rays
##rays
##raz
##razil
##razine
##razol
##razole
##razolium
Rb
##Rb
RB
##RB
RBC
RBCs
RBP
RC
##RC
RCA
RCC
##RCC
RCT
RCTs
##rd
Rd
RD
##RD
rDNA
re
##re
Re
##Re
RE
##RE
##rea
reabsorption
reach
##reach
reached
reaches
reaching
react
reactants
reacted
reacting
reaction
##reaction
Reaction
reactions
Reactions
reactivation
reactive
##reactive
Reactive
reactivity
##reactivity
reactor
reactors
reacts
read
##read
Read
reader
readers
readily
readiness
reading
##reading
readings
##readmill
readmission
readmissions
readout
reads
ready
##ready
reag
reagent
reagents
real
##real
Real
realistic
reality
realization
realize
realized
really
##ream
reapp
rear
reared
rearing
rearrangement
rearrangements
reason
reasonable
reasonably
reasoning
reasons
reass
##reat
##reated
##reating
##reatment
##reb
rebound
rec
##rec
Rec
REC
recalc
recalcit
recalcitrant
recall
recanal
recanalization
recapit
recapitulate
rece
Rece
##reced
##recedented
receipt
receive
received
receiver
receives
receiving
recent
Recent
recently
Recently
recept
receptive
receptor
##receptor
Receptor
receptors
##receptors
Receptors
reces
recession
recessive
recip
recipient
recipients
##recipit
##recipitation
reciproc
reciprocal
recirc
recogn
##recogn
recognised
recognition
##recognition
Recognition
recognize
recognized
##recognized
recognizes
recognizing
recol
recom
recomb
Recomb
recombinant
Recombinant
recombination
recomm
Recomm
recommend
Recommend
recommendation
recommendations
Recommendations
recommended
recommends
reconc
reconfig
recons
reconstit
reconstituted
reconstitution
reconstruc
reconstruct
reconstructed
reconstructing
reconstruction
Reconstruction
reconstructions
reconstructive
record
Record
recorded
recording
recordings
records
recover
recovered
recoveries
recovering
recovery
Recovery
recre
recreational
recru
recruit
recruited
recruiting
recruitment
recruits
rect
##rect
rectal
##rectal
rectangular
##rected
##rectile
##rection
##rectional
##rectomy
rectum
rectus
recur
recurrence
Recurrence
recurrences
recurrent
Recurrent
recurring
recycl
recycled
recycling
red
##red
Red
##redi
redistribution
##reditation
redox
Redox
reduc
Reduc
reduce
reduced
##reduced
Reduced
reduces
reducing
##reducing
Reducing
reduct
reductase
reduction
##reduction
Reduction
reductions
reductive
redund
redundancy
redundant
##ree
reef
reefs
##reek
##reement
##reen
##reening
##rees
ref
##ref
Ref
refer
reference
Reference
references
referral
referrals
referred
referring
refers
refine
refined
refinement
reflec
reflect
reflectance
reflected
reflecting
reflection
reflections
reflective
reflectivity
reflects
reflex
##reflex
reflexes
reflux
refolding
reform
reforms
refraction
refractive
refractory
##refractory
refrig
##refring
refuge
reg
##reg
Reg
regard
regarded
regarding
Regarding
regardless
Regardless
regards
regen
regenerate
regenerated
regenerating
regeneration
regenerative
regi
regime
regimen
regimens
regimes
regio
region
##region
Region
regional
##regional
Regional
regions
##regions
regioselective
register
Register
registered
registration
registries
registry
Registry
##regn
regression
Regression
regressions
regul
regular
##regular
Regular
regularization
regularly
regulate
##regulate
regulated
##regulated
regulates
##regulates
regulating
##regulating
regulation
##regulation
Regulation
regulations
regulator
regulators
regulatory
##regulatory
Regulatory
regurg
regurgitation
rehabil
rehabilitation
Rehabilitation
##rehen
reimb
reimburs
reimbursement
rein
reinfor
reinforce
reinforced
reinforcement
reinforcing
reinst
reinstatement
rej
rejected
rejection
rel
##rel
Rel
##Rel
##reland
relap
relapse
relapsed
relapses
relapsing
relate
related
##related
Related
##Related
relatedness
relates
relating
relation
##relation
Relation
relational
relations
relationship
##relationship
Relationship
relationships
Relationships
relative
Relative
relatively
relatives
relativistic
relax
relaxation
relaxed
relay
rele
##rele
Rele
release
##release
Release
released
releases
releasing
##releasing
relevance
relevant
##relevant
reli
Reli
reliability
Reliability
reliable
reliably
reliance
relie
relied
relief
relies
relieve
relieved
relig
religion
religious
##relin
##rella
rely
relying
rem
##rem
Rem
REM
remain
remainder
remained
remaining
remains
remark
Remark
remarkable
remarkably
Remarkably
##reme
remed
remedi
remediation
##rement
##remia
reminis
reminiscent
remission
##remitting
remn
remnant
remo
remod
remodeling
remodelling
remote
removal
Removal
remove
removed
removes
removing
ren
##ren
renal
##renal
Renal
##rence
##rences
##rench
render
rendered
rendering
renders
##rene
##renes
renew
renewable
renewal
##renewal
renewed
##reng
##renic
renin
##renorphine
##rens
##rent
##rents
##renz
##reonine
reoperation
reorganization
##reotide
rep
##rep
Rep
repair
Repair
repaired
repairing
repairs
repe
##repe
Repe
repeat
##repeat
Repeat
repeatability
repeated
Repeated
repeatedly
repeating
repeats
reper
reperfusion
##reperfusion
reperto
repertoire
repeti
repetition
repetitions
repetitive
repl
replace
replaced
replacement
Replacement
replacements
replacing
replic
replicate
replicated
replicates
replicating
replication
Replication
replicative
repolarization
report
##report
Report
reported
##reported
Reported
reportedly
reporter
reporters
reporting
##reporting
Reporting
reports
Reports
repos
reposition
repositioning
repres
##repres
represent
representation
representations
representative
representatives
represented
##represented
representing
represents
repress
repressed
represses
repressing
repression
repressive
repressor
repro
Repro
reproduc
reproduce
reproduced
reproducibility
reproducible
reproduction
reproductive
Reproductive
reprogram
reprogramming
##rept
Republic
repulsion
repulsive
requ
##requ
##requency
request
requested
requi
require
required
requirement
requirements
requires
requiring
##requis
rerio
res
##res
Res
##Res
RES
resc
rescue
rescued
rescues
resear
Resear
research
Research
researched
researcher
researchers
Researchers
researches
resectable
##resectable
resected
resection
Resection
resections
resemb
resemble
resembled
resembles
resembling
reserve
reserved
reserves
reservoir
reservoirs
##resh
##reshold
##resia
resid
##resid
Resid
reside
residence
residency
resident
##resident
residential
residents
resides
residing
residual
Residual
residue
##residue
residues
resili
resilience
resin
resins
resis
##resis
resist
resistance
##resistance
Resistance
resistant
##resistant
resistin
resistive
resistivity
resol
resolution
##resolution
Resolution
resolutions
resolve
resolved
##resolved
resolving
reson
resonance
Resonance
resonances
resonant
resonator
resonators
resorption
resour
resource
Resource
resources
resp
##resp
Resp
respect
respective
##respective
respectively
respiration
respiratory
Respiratory
respon
##respon
Respon
respond
##respond
responded
respondents
responders
##responders
responding
##responding
responds
response
##response
Response
responses
Responses
responsibility
responsible
responsive
##responsive
responsiveness
##responsiveness
##ress
##ressed
##ressing
##ression
##ressive
##ressively
##ressor
rest
##rest
Rest
restenosis
##restim
resting
##resting
Resting
##restingly
restor
restoration
restorations
restorative
restore
restored
restores
restoring
restrain
restraint
##restrial
restric
##restric
Restric
restrict
restricted
##restricted
restricting
restriction
restrictions
restrictive
restricts
resul
result
resultant
resulted
resulting
results
Results
RESULTS
resurfacing
resuscitation
resveratrol
Resveratrol
ret
##ret
Ret
RET
retail
retain
retained
retaining
retains
retard
retardation
retarded
##rete
##reted
retention
##retest
##reth
reti
retic
##retic
reticul
reticular
reticulum
retin
##retin
Retin
retina
retinal
##retinal
Retinal
##reting
retinitis
retinoblastoma
retinoic
retinoid
retinol
retinopathy
##retion
retirement
##retory
retraction
retrie
retrieval
retrieve
retrieved
retro
##retro
Retro
retrograde
retroperitoneal
retrosp
retrospective
Retrospective
retrospectively
retrotrans
retrotranspos
retroviral
##retroviral
##rett
return
returned
returning
reuptake
reus
reuse
rev
Rev
reve
Reve
reveal
revealed
revealing
reveals
rever
##rever
Rever
revers
reversal
reverse
Reverse
reversed
reverses
reversibility
reversible
Reversible
reversibly
reversing
review
##review
Review
reviewed
##reviewed
reviewers
reviewing
reviews
##revir
revis
revised
revision
Revision
revisited
revolution
revolutionized
rew
##rew
reward
rewarding
rewards
##rex
##rexate
##rexed
##rexone
##rey
RF
##RF
RFA
RFLP
##RFLP
Rg
RG
RGC
RGCs
RGD
RGS
rh
##rh
Rh
##Rh
RH
rhab
rhabdomy
rhamn
rhe
##rhe
Rhe
##rhea
rheological
rhesus
rheum
Rheum
rheumat
rheumatic
rheumatoid
Rheumatoid
rhin
rhinitis
rhinosinusitis
rhiz
##rhiz
Rhiz
rhizosphere
rho
Rho
RhoA
rhod
Rhod
rhodamine
rhodium
rhodopsin
rhyth
rhythm
rhythmic
rhythms
ri
##ri
Ri
RI
##RI
##ria
##rial
##rian
##riatal
##riaxone
rib
##rib
Rib
ribavirin
riboflavin
ribonucle
##ribose
ribosomal
ribosome
ribosomes
ric
##ric
##RIC
##rical
##rically
rice
##rice
Rice
##riceps
##rices
rich
##rich
Rich
##riched
##richment
richness
##rick
Ricketts
Rickettsia
##ricular
rid
##rid
##ride
##rides
ridge
##ridine
##rie
##ried
##rief
##riend
##riendly
##ries
rif
RIF
rifamp
rifampicin
##rific
rig
##rig
RIG
##rigel
right
##right
Right
rights
rigid
rigidity
rigorous
rigorously
##RII
##ril
##rile
rim
##rim
##rimal
##rimidine
##rin
##RIN
##rine
ring
##ring
RING
rings
##rins
##rint
##rio
Rio
##riol
##rion
##rioventricular
rip
##rip
RIP
ripening
##ripiprazole
##ript
##ris
rise
rises
rising
risk
##risk
Risk
risks
risky
risperidone
##rist
##ristine
##rists
##rit
##rite
##ritic
##ritin
##ritis
##ritish
##ritten
rituximab
##rium
##riuretic
riv
rivaroxaban
river
River
rivers
##rix
##riz
##RK
##RKY
RL
##RL
RLS
##rm
RM
##RM
RMS
RN
##RN
RNA
##RNA
RNAi
RNAP
RNAs
##RNAs
RNase
RNF
ro
##ro
Ro
RO
##RO
road
##road
##roat
rob
##rob
Rob
##robacterium
##robe
##robi
##robial
##roblast
##roblastoma
##roblasts
robot
robotic
Robotic
robust
Robust
robustly
robustness
##roc
ROC
##rochemical
rock
ROCK
##rocn
##rocnemi
##rocnemius
##rocyte
##rocytes
rod
##rod
Rod
rodent
rodents
##rodesis
rods
##rof
##rofacial
##rofen
##rog
##rogate
##rogen
##rogenesis
##rogenic
##rogenital
##rogens
##rogli
##rogram
ROI
##roid
##roids
##roin
##roke
rol
##rol
##rolactone
##rolase
[...]
